{"schema_version":1,"entity":"wildterrain:xingsing","policy_version":"xingsing_teacher_distilled_v1","obs_spec_version":1,"num_actions":14,"training":{"source":"synthetic_teacher_v1","train_examples":60000,"test_examples":12000,"epochs":20,"learning_rate":0.35,"seed":23,"train_accuracy":0.996217,"test_accuracy":0.992333,"options":["IDLE_GROOM","OBSERVE_PLAYER","APPROACH_PLAYER","KEEP_PLAY_DISTANCE","MIRROR_JUMP","MIRROR_SNEAK","MIRROR_SPRINT","PICKUP_ITEM","RETURN_ITEM","PLAY_CHASE","CLIMB_TO_PERCH","WARN_HOSTILE","FLEE_TO_TREE","LEAD_TO_FRUIT"]},"layers":[{"type":"linear","in":110,"out":14,"weights":"9VsHQcLvrL4wjnk/ZmaGv5dgWTx5pRlAB9ElQC61lz815wtAI3+6P7tcvD4sijFAm7kwPchQKT+A8SRAEg1oQHCkhr7SNytA834APyvHfD+T3/c+4rzEP1m1IcDOpJo+1COlP6u23T7utShAJWq/vvj9d0Drj6q/+kxXuyqrtT9ontnB8vOMvS+4e8DelgY/veJVvakwqj9DHoDBg5qZP9pqM0Aluqu/ZqQKQEbn7j8jdc0/Q0nTvgQTn7/LnTm+9XfhP4RTpz+WkvA+pckaP0/q5j/VtEE/MTLkP2F/Dz855W0/OLXaP9AnWr+IcgFAuWTLP8rbir+hWsS/9KZ6vXpuIcD0FeU//q0zQK0bCz+5fsc+g9F8vyXIj8DxJZXAImAKwAdQuT9RAIfA5JovwcSfBcF/P9c/AuCoPlfsV0CyBO492paIQEm3l0AtAbU/o3b0P7TXXD9usDY/Cr4rQPw2uT9Aqd8/wY62vv3uOD+6doA/jqpXP6P9I0BOW4JAYlaHP4N9kD+yhos/J4KPv+i7Q0CI/7A/Zb/dP4LP7D8ZOjNA2hpnQJH2KUBvQp8/6mDeP2WHbD+di9VAvtwkv2ZUhD9mZoa/zwfPv2oPuD/UexhAvmvOO22LbEDJ8Q1AYxWuv6sn974dM8S75GWjP4xFJ0CCHhlAU1LpPRyoeUAvYwc/nnAGQNQ3YT47A4I/d5omwLH9jz5jcr0/Kt2FPpR0CL0h1dG+kNCAP61tib/K5vc+xmnoP1Nqj0Fu9rxAWty5v1DVC0DmHYM/CRfHPumnS8HOrTo/UkKDP9LkIMBS4zK/ue25P9M6TL4tJ9I/cDMbvprs6z5/IStA5Euhvze24700zMU/L2WaPqmRX76T3AhAG5CrPws66T4ydJU/kHMJwII8QEDexL0/g+qsv+B1kr91fhRAZzmKv4M1BkDcAARAo+upP1o34r42KNs9B7GJwDH/nsB09jnAoz+2P/HAfcBf4zXByUZcvxMemj4mL1u/4U73v9xfjr/dsFZAGtKaQDXphLxiHS5AhiPyP/KJSkDkASNAZ8vQP775Mz+ncfS/zyDAv32VFEAtzvU/XSGIP7UpI0B0g3U/tHLaP4YT0r7nnQg+VmUbQOTU5z6bfak/BUdxP2rcuj/BiwNAJfSgPx/x3D+V/MM//oR3P+WSgL8AAAAAAAAAADMzs78AAAAAAAAAAAAAAAAAAAAAAAAAAAAAAADXFPO9AAAAAAAAAAAAAAAAAAAAAAAAAAC2VIm+AAAAAPDvBb0AAAAAAAAAAAAAAAAAAAAAAAAAAAAAAACIXdC9AAAAAAAAAABtayG+AAAAAAAAAAAK9wO+LJ4Lv7R/kr5oCS2/AAAAAIHE+ru8SRy/MzOzvwAAAACoknK+AAAAAAAAAAAAAAAAJ5ShvgAAAAC8SRy/ZmaGv7t5kL/aqIq+9y5SvgAAAABYvym+8KWBv7yWCb8AAAAAElEcvhYtFb8AAAAASrV3vgAAAADnm1q/O9mBvzMzs78AAAAAAAAAAAAAAAAuzK29z06svgAAAAAAAAAAQV5+vrFrjL0AAAAAHoBCvp4VAb9//M2+SrV3vQAAAAAvH4W+AAAAAAAAAAAf3Nu+IH5IvKFGWL78V6G+AAAAAJcEn70AAAAAAAAAAAAAAABs0SG9AAAAAAAAAACiRLC+AAAAAAAAAAAAAAAA5Sb7vQAAAADuL6i+AAAAAAAAAABU8EG+dVSuvgAAAAAAAAAAAAAAAAAAAAAAAAAApKU4vwAAAAAAAAAAZmaGvwAAAAAAAAAAAAAAAAAAAAAAAAAAAAAAAAAAAAAAAAAAAAAAAAAAAAAAAAAAAAAAAAAAAAAAAAAAAAAAAAAAAAAAAAAAAAAAAAAAAAAAAAAAAAAAAAAAAAAAAAAAAAAAAAAAAAAAAAAAAAAAAAAAAAAZAQS/3dUuvolwRL8AAAAAAAAAAJ/DF75mZoa/MzOzvgAAAAAAAAAAAAAAAAAAAAAAAAAAAAAAABc5kb4zM7O+ZmaGvwAAAAAAAAAAAAAAAAAAAAD+lUq/uSrTvgAAAAAAAAAA2uwVvwAAAAAAAAAAAAAAANHy6r5Al1W/ZmaGvwAAAAAAAAAAAAAAAAAAAAAAAAAAAAAAAAAAAABDG3G+AAAAAAAAAAAAAAAAH31ivrpM3L4AAAAAAAAAAL/8174AAAAAAAAAAAAAAAAAAAAAAAAAAAAAAAAAAAAAAAAAAAAAAAAAAAAAAAAAAAAAAAAAAAAAAAAAAAAAAAAAAAAAAAAAAAAAAAAAAAAAAAAAAAAAAAAAAAAAAAAAAAAAAAAAAAAAAAAAAAAAAAAAAAAAAAAAAAAAAAABMp9AIeEZwPoOa0AAAOC/GaQGQLAl7b8WkLg/f2HOP7Rnj8DP6Z/Ao+tbwP4+BsBKO/0+6Z2Fvz5ADUDFro4/us2Iv/DhEMAc7zQ+5K8WP+Vbyj/4bAG+giLiP6wbNEA3LRnA8Wp8PWtewT/S5bK+MjdCwFcXh78QgA3A8rVSQEyje8ARnK2/ItcNP/dkasDXpZG/ufkiwOyRAEDxhCpA2dMSwD9kK0A28MO/PCOswC1FXsCXlLa9LpJHP4b957/WcwtAvm8ywH/FDD+rOVQ/NxuEwPuPAD/FTS/Ah0uQv3q6mj/qtStAQqT7v12eQj1RAKo+ikUdP2/hvr6rcRu/GKMuP6ghCkAKz5U+g0dwQPpq3z/Fwic+FM3vQb6zBsBBOy6/C0Hiv9xIqcAcUnrAkqRQwMvsdz4MIwdA8yK8PhF6ob7PAY6/Yyelvgk8H8ARQwnBy0NWv2QDTb8qMFs/Yp+AvyJKar7vNVw9mCFMP4wwqT+eyUrA00AEP/EaEr9odBhAz2/pPjLeOMBFAo1AkRNNQBVcG0BOEq4/Wug8Py+Hmz0TNITA/wz3PpCY27+55Uk9Grz2vrN/UUCYCJJAqpB9v83MHMC6bNS/lJShP0kjN78YdjrA8uEKwCcRWb9kMCnAgtSOP99PJcBvwjJAzcGRv84v/j+1hcQ+WnQ4v7EmGL+T0ao/Irvuv+nAEb4A1WjAdwYTvkfFWLzPDwRANg0kv1ugUj5o85W81Fjqvyi3gT+H59u/WjJBP4j5L8AFBxm/uBmtP8IrGkBfjqu/UUFYQJlQlT8UawHAuPdDP3wyH0BUPEo/WlCEviILe8DjMxhAVlbRPy29yj8arxLAPm8NwB9TmT6FbaU/2BMhP61ED7/mQWLAtMggv0Mqvb/bumA+V+8cvwhsmz+XcwHAQoLnv6C+Pz8oxPg/EMnav1XzaL/qw5S/75TmvlrHRT5lFDrAnNjaQbpbTMAqNCe//8BSwAKdA8D88AJAYAoePng2MEB/aoA/IrACPv2nEb8l7VfAv1Y0QHLU87+MgWbAgf1Av0VKKMDoJLE/T94owDJOMUA4ypm/PRkZwHwytr5I6Cq/BlOBv6Tat7/Cjr6/ze6av+mSqj+Jbyu/IitHwL1WhD/c5AnA3/srwMu7OD9m5Mu/077gvxfAIkDe7IVAUfUyQBpB0L8p69K/MzOzv6dLRsDl2IvAmY8UvhfJasA8FMm/yUEHQBk1ZD+h8PC/nPoiwEroyL4QLVrAcikjv/3vVkD2qZrA2fwfwAXFAr8Rn+4/10wxvv7Yiz8h7Iq/EDa9v7oLvT7AGoK/Z88ev8z3Mr3nUKe/4RDlv/oLFj+CiR5A+92uP5axy79Gfks8hcX3v1yor70RLLFA3VhpPzH1a78nFuo+WazMP2vQnD6mFgs/Z8wYwAuzrT8kRMq+dLHCP103C8BGu3e/KSsFPzBK/7/5B4I/H7klv7T7u0CfZCjAoDDKPYu1+7985QDARDU4wNTrkb9lWVc/W7OtP9fkLMDImqbAZ3c6v6Rp679g8z3A+bP2PniyT8B71knAVFG8Qa2COcCLJY/Atlwiv/c7uT9P6Ri/XCSLwKSMVb98qxI/bFDlv7vb2j02B5O+Gx62PwHDRL+Quo3AU6+JP2FBB8AjFOs+PIXOP3QcNMBQIk3AakHYvzdXmcDfSFdAkxwBwJnVkb/OA4q+eRP9v3Gqlr9GtWa/caDIvIIrKj+aMD9APfTtPwZJDUCNHIvAhl/sv784478DlDFANTMzPvJpE8AzMzNAuNfFv+GCqr8YCMS+CWptvjX6E79YtBO/RNynv4U9HUAwIVm/4QY9v/YJIb89OJS+IOOjvN4vnr7Opa69XiIeP6q2C7+MChs/5WzUvnmGMj+rboq/GoL2vomEar4Kz92/YNIgv6YpnL+mk/O9QQ0PvnnNor7hk6w9o9M5PsouXb/Jm7q/bCcrP4UItT8+Hq2/57l5v7+iAMBS0CW/hnQGv99wk790K06/vofBP9JAg77QTKTA4iymQOIUIkC2WME/c3fEP9nVEr/dOb897eGfv+MPdr+h2x2+aCnPvxTOgL6f08a+cBO1PShvREBNqkdAOfxFwBS8S70wF+Q/YnMBwClXDL+LzGu+LxP8v1Eaf79U0ce/HFodQf/K2b8fKnfA9l+4vrfdvb6yvte/9QKSPQS21L9f7cG/E/hqPhSiG7+F+2g+3Pg5wGpkzL8KPjq/0+GCv4AX77zCehTAoU+Sv3sypD4IqkW/7aIXv5mZsb8KSRe/T/opv8if3rzB/w7AjbBpvsmxzL86keC/f3WMv5VA0r7CewvAk4+Mvi6KO7/8f+u/cruKvnxD8UAxRrM/d7jGPzMzMz/wgQjAjcw+wNkp4r7xugs+QrQuQKk7kj0G0nQ+bO5MP48lrz3DZ5q/9W0awPz5w7/lzDjA2ARdv9S+QL83Efi/umKMP68FAUDFRKO/gZqAvfAtkr/fzno+l5LnPwoTtD6GIem/4F4AP1d+yT1y0ATA6LxVvwAaeT4l3ivAjdMKQM5fU8CtCEA+yMLDQHD4oL7gnES/d84tv/bmnL/kWpi/n2UKv50Lqz/D5Oe+byC6PT8wqD/SyNe/dfJ1P1njF8CZbms/2odrwAjher+af8Q/9OMRQB2aQb/1fPu/mqJOv63gYcBgEU9Ay3xIPpWVer7dxhxAYEJBwNHwur4ffk1Aurr1v9KBTL8B/wK+Iwr9v2Vwi8CvbCQ/ZpAGQr3siMDDbzW/G2/avw6iHcCEX52/ZVrOv9jlDUBFRj/A39EOQBRyUD0Rx03AcmkNP1AOgD1wWiZANFSPvrm8Oz6s3L4/4cO2vyEzxD7pihfAfd1gwBCm2T4kZlq/ceDXP57JsL9A4d6+z83OPrKwRz3emL0/S2jnPsZ6UL+/Mym/6LYZvhmZwz+sxL0+UZq1QI5Z9D+jtYo/AABgwD9msz8lkmrANeNLPK9XNkD/bTG+JjkvQJaaM0AOFES/fYpjQAQdwkA6jAVA6nSzPyHeG0BLMVa+gL5Xv+TLSL7lU/A+fZWmv3xOMz8ovgc/wGyzPZu7iz8FdYLA7ZU/vyhHmEDj6pdAH3EGwNUQhcAk2HhB7iccQTxRsj8k644/VZ2mQEWlJ0AHnlxAVceLwEaHRT9wOvc/RQJSQHWwbL8ooCq+r61HQHnKaMDHg1I+riPlwAW2uD/eWJ+/dqtZwFNhLD7mxGo/s4Sov50gSTw5HYQ+EKXrPzGOoz91I9S/t/8MQFAbo7862G/AJZSswHWfNj9xIZS+nOXBwEa2EsDJk/a+mpcEvzs7JcGtSgVAfREJwK9lPMBP4frAmehCQogEJkE78C2/yy+PPmHd8j/A2E6+518/wPDxNUD6Y5PArhGCP1UM50DIcX++XOxYwPS1sr6UAgO/4JJ2Pxq5QEBv77o/RKBJQFe9bz9WUPTAbsMPQGoN+j85CJ8/56wxwMQD3L9tDv2/b2+DvxrxE7/yFx7AbSbFv+euScD/xwZA3pw+wGVZnb9q6Q5BLNEWPoQWEMCamUlAKx4CQex9r0CIEd2/gYp1wPpKCsBGVeq9tUDOP+Zvh7/D9AVA/5tNwIZ0DsBh2srA5qkKQFb6EcB7nCW+TotCwD3Peb+cQjPAwov3Pzy1E8AYo1g/fayyv/G6EED7QCJA07qGwHmfgkDvyFo9E3D5P0s/TcAKZLzAGsLrQM/Y17/hLYw/4VT9v1EXJUBoZiHAWIXxvcqEND9tVB/AIzo1P40wAUDV5NE/LGuDv8xrqT9prek/4l6gPo8NQr+FOSDAixmYwAPvmT5izlI/actGv5GUpTyDRo7AmtxJQGLUO8CozCu9YmacvzWngD62tLm9267iv00JJcBzwSw/bwk4wAkuqUAoUVo8B6+Xv4KQbcBGarK/lfWKvwUA7T4HHHnAv/crv+CQOr8BzI5Ac1uYP0E7rz0hvUTA3QJIwHJbgr4tB7G+JwnEPrACMb20vuc/iyM+wG+mJb7v3gM/eQoGQGDKpD+Bl/W+0YuDvysSDb9PnQK9DF5PvyUp2T8iJ0I+0yrOv4gqPrya5q6+hBe3v0x1ZMD8sjE/wqkpwHejMsBpsa2/oO4nwEmnHED97hS/chY7wDMzs0D/FB3APtnaPqq5fcDujsQ9grRRvxPbyz30KUy/S82EP3Z0VL/rmvm/yZclPgB5579UBjnA0NNVQCvZFkAWP+K/6TAYwDWU/j6CbRRAk5vmv1J4hb6T5hNAzI+avwPdrr4bhfs8IWIiwETnMT9lXybAHbKgPsrPpz9I29Y9yvsUwN/hAcAlsjy/FuATQNwYsT6Fpg7AtguVvwH+I8D/66k/4Lo4PyZrQb9i6qU+iXk1P5IyT7/CvkE/ZKU/P8UzCL/K+0Y/p73Tv0fUqz/KJxbABylHwLhKX7+aqDvAcr0GwKaN9L+a+Ps+QVgDP02ljMA0W4E/S8iKQEMDqb67POg/0Cg/QE0WPEGmcYm/iQdZwEJnhMDLXA3Aiy0kP/FQz8BtjB++lvUtQYiHAcBVAqS/yhcoQHA6CL+UJRzAwgyzP/+Dpj9Glc88losfQI0hAr8rTru/ScfKPjb737+Z1mw+KH3jP2xoMD/07vs/GOhoQAIBh7/DJJe/jlm4v2ZDOLxUxvu/CrMlPz05C8A9H4m/fEraP1kMG8B05yi/n2yUQMtrMT483gzAnEhPwr9uJsDEOeY/MzOzP8Z9Wz9LFkxAuOZyP/d6mEAc4lVAVkUKwA8XcEDu9fK/Cb0KP5A4EMDgXi0+T0qtPZmkh7+kB8g/1dezP2Nj6T+2y0k9w0uQvw1QKUC1tEY/FY8qQKZum8BPuYG/due9P3FReT60U4M/u0J4QCv04D9bx/C+R2kCwdqGBkC0+JY/1d1APu04EED1yYxAv9TxP/jfnkB/9ZU/MiPCvvzJyD+Jw5s/9oUiP6b/hj92m8K+PiYbQC+3uj+R/3A+zQxgQM3Kh0B1xHNARouBP7Snk75LWBVAzyGwP7W9DEGNpLFAtLf2PzJEn0D5u7JA0EW2QD7Oi0ApJh5A4v5FP+JDv77SzVDAGeEiwQfFr77FX3/AMR5wv+A75b89gnHA9m0Lvxh4qj8muxHB5FO4P+Xm+L+L+q8/DOLePxvZob2J3NE+tBcZQANboT/ZGnM/hfnZv4lq7j/WYAs/FZJyPtUE079t7R3AoBEFv0qlL0DwXIU/ESP4v5IdZD8APic/OxpcQEEwDr/IWRJAJqI0voAtWD8kpy67vmUJQFHIGEByluM/7VzrPnWvCEAAAAAAAAAAAAAAAAAAAAAAAAAAAAAAAAAAAAAAAAAAAAAAAAAAAAAAAAAAAAAAAAAAAAAAAAAAAAAAAAAAAAAAAAAAAAAAAAAAAAAAAAAAAAAAAAAAAAAAAAAAAAAAAAAAAAAAAAAAAAAAAAAAAAAAAAAAAAAAAAAAAAAAAAAAAAAAAAAAAAAAAAAAAAAAAAAAAAAAAAAAAAAAAAAAAAAAAAAAAAAAAAAAAAAAAAAAAAAAAAAAAAAAAAAAAAAAAAAAAAAAAAAAAAAAAAAAAAAAAAAAAAAAAAAAAAAAAAAAAAAAAAAAAAAAAAAAAAAAAAAAAAAAAAAAAAAAAAAAAAAAAAAAAAAAAAAAAAAAAAAAAAAAAAAAAAAAAAAAAAAAAAAAAAAAAAAAAAAAAAAAAAAAAAAAAAAAAAAAAAAAAAAAAAAAAAAAAAAAAAAAAAAAAAAAAAAAAAAAAAAAAAAAAAAAAAAAAAAAAAAAAAAAAAAAAAAAAAAAAAAAAAAAAAAAAAAAAAAAAAAAAAAAAAAAAAAAAAAAAAAAAAAAAAAAAAAAAAAAAAAAAAAAAAAAAAAAAAAAAAAAAAAAAA==","bias":"zcycQWZmvkAzM7O/ZmaGvwAA4L8AAOC/ZmYGwM3MHEAzM7O/mpnzwTMzs74AAAClAABEQQAAAAA="}]}