{"schema_version":1,"entity":"wildterrain:xingsing","policy_version":"xingsing_real_bc_20260710_v1","obs_spec_version":1,"num_actions":14,"layers":[{"type":"linear","in":110,"out":128,"weights":"+mAWO+PWEjyGvga8Bh2/vJxAZrwCtfO8iH7sOsZCND3rVHW86HyYvGXEcDwK9i48u0BPO/2r5LyyC2a6suCqPFUtJb3xAHS8TJ9pvVp1Hr36T2K9vBNdu2u+G72O2FM8My6ZO7bCt7s1oZq9TzKOvKa2vrrUdxI76QU8vUbTary5vey8EEDCvJMLBz3hxrK8r3wCOowy+Dyfj5u8b51bu+vQWjvOJvc65F0cvaKyFTvk+CY99xw+vTa97jzxkwk7HASAvLP6bz3ePrM8Im0FvTEgoToQcZ88sNdUuwDVpzxDxwK7IzqsPGKbOj3+DKa8NBQcPHlHPLyIu3U7iAoIvYFejrxV3sC7VeHcPJK5DD2WoiK9k0rDvP3Jnjwb1HS97lxjvBXPi7tGdho9hL6jPKRyHbxo6im8vVS8u1JcOj0AYlK81kMVvPlNLTzBcW27NPDBu4blCL2PN7W5bwdavDVLDz3HgKA8g989uuZCpDx9DSe8CUkBPQLbKbk+X488/p8evXJmKjxPck+96hl6vQ+oFbyNKt28PUWhO/jqiT1/Z8y8I1eZvJjryTtuU3I8CmqtuxFwyruk+Qk9hYt/PEMJ/rx9kxM77S6MOziTAb2nbv87lkd7vTC3Kz0Zer07bZUvO4OEh7w+Bzm7XT1yvVtsCr0pShw8d8eCvQRycj1yj1a93/m5PBPKz7wIudo887qAO6RHir0Sqhw93So0PYlv77okZhe8mC+vuy2zlDsQewE9O3SFvJl7KTvHe+u8BI8WvHTv07wnhYI9UFZsOwx1Az0IRQs74TCdvM6aPLw8QF68Il96OX9zOLznwFy85EcDvcvCrLyH73k9rbWYvA5J/7yCy6w8ZQ0zPVi8BL09S6w7T1WbvOJkWL0wndY8SMY/PNx1DDuA7gS9jJnSPBh3vzqA6gU83y4IvUlvFb0zHCQ9ikB5vOJdDzyR3oS6YLhEvLOmXrxQi6Q8EnUAvH/qp7vdHgc8orsgPT4MlzzWFZA8qX1uvPrQKb1CW+k8mYPtPG5SirtiLIU8JQzAPJtFzDxwcOI8+PFfvO4oOj1tLhm97sbTPArHcjxds9Y8fuRmPZ5oNj0nuAy9BIFPvTfCyDwPc/m8sR7DuRZfzjxl/Um9H6OBvbzm/jtNiK46XqLxu12Glzr2etO8a/o5vYuqWjygzu68dPNJvVAfCD3ibfG6IdFHPA4h87zdwMY7gDbJvK/m2bwDGMA7HuexvE3QRzzldTo8yFx9PTx/Kr39Ndo82AuqvCir3LnGKDK9yDFivMdxCD25KCK7h8MNPZQN+LvNEhQ9VavvOS++hb2Dpqe87/mdvYJxx735R4K84h9LPeguqzvAOuW86RUZvLQnMT0THhM8FoaZPCnH3Drh0KU7oILPPOqIxzzdC9Q7zSUAvbgB5jya9oy8ZEZNPU01urwho+I5cEM6O/cjz7xD1mU9WAt5PazmnTt/qL08eiA6PO1Yjr3mAtg8+TbxupwYTTwMXl28nfkcO3irXTw2/hE9qmAkPAO/Lrk94Ts9LnWIvKxpP7zuE1i9ChNLPT8xAj0u4gA9FuqkPAvMDjy3Yns8NA62u+Df8zug1rc7C8Y5PdyQiDzk3+W6MmSOvKcOnLy+8EQ9BQx5PE/PBDvCJyq8zkcIvYZ0A7vQtdY8nvBAvHhj37seSdm7p3hXO8q/Q73vZ+e76/nRvEdl2TzgYb28pNCNPKhSOz2LIxq86NeTvIEvvDuOT3+47zD0vBaNYjynqnc9A7z9u3dvx7u4ZgC9ntYcPHs6Gb0KBQi92j4dPS6G3ryR4AQ9KFA7PaTt/jtgAIg8geRvPVNkwbuzvJG8+Egmvbn/ozrbwTU9hdTrPEKH57yRN9K8bM93vNanDzxQ1Mm7GtHSO3TaETxr2hK8aviduq0WyztWFyW7ln13PKrkZT2te5E8vHTbOrUwT71MsD48NTVvvWEkLb1BCdI8eJCtPGJlk7tMIFK9dYY2vIbOpryOgpw8CLeKPVhA1TsEhr+8XtYPvVqS3Lp3y627qX8NvYLDZDucbA2936cIPRmUAj1TSwU9WwFpvKvlfDxh1IG74Rs/vGayJryCtR+9Bmwxvfc1wzz3/bu7GcHUOysu9jyi91S9M7XAvHVcrDvxuEA88lY5vFzu/Dyf0847tBkVvZi+5Lzb88U8gftjPE1bab1dmyU9nPiSPOsRJT2/mDy8dFgRvEdrCr103ps9gHqsu3oTQz0fFJ+8/A+hOzRgTb3WLzy8gsTxPHXQGb1dwQM9VsIlPNtHAL2Li3a81aNhvMy3wrpDw4O8dFDLvAG2FbxRXvy8AHUevQlwvbql+dg84O07vby23Di1u5+8rSTwvKi90TzWsH68fxw4PUCnv7w1+T08pG3fu/NOubxRbZA8pFqYu7o+lDwx9bm602wFvSKtSLvJS8w6Ro3rPIS53ry6ppq6n5VTvWYcoDyD5AS9KPddvZ7Z6LrX3Qc99FI7vaSyBb3Qqra85MoKvRR/Ojwra8a8yFGxvGdajzzfrLm8V7hUPEW67ryV8hS9PophvWG0ZD3qaR282MvvO+sudLqyP507DGDDOlF7aj2cU/+8hmE/vf+y+LxRAiS9ypK3PLydyTy/QOy8VNsqvcBjLrz58Co9/jutvX5sgTxVMAS9Pq7/PI50BL2fSQy8chc5vb8r8Ly7Sio9WarJPI1tRbyD2tW8BbZovXp9Qbx3CHO68kEluwZnOLsU2Qm9vUwCu+YRmLqSlR49W2JlPWuqhrvNU7y8J4X/ujpUlbzmdba8LZ/muoUzAL3x9JQ8aU5Mu6fE9Tte1rO75bqyvHX46Lx2QOm7BN2GvDPv5TvKaAu5d2YnvUL3Azu8AiW9a4GXvEGuELx0An+9NekzOzRslDsXWJu7eI9QvDiiN7yN/u+8KZAEvFTPh7zFQjQ72fYTvTbQ5js3yow7dCmLu8LgV7w5voc82ItMvXBSYjxi6u47G84KPONnPDzAo6C8Qw//uz+QnDz1qlM8+TTLO2UUOr3uMIQ8YLQPPQoj+DxX6eU7VWg/vQNf5zzYwZC7F5mbva1nOTyqWze9f04fvSkMnLyHQRw9JUc2vKIyBTxRylY93t9DPYiTTLvZxu27Sw4bvbCrqrz1AVE8kgdCPLi8WDuCe/Q8MtG9vKAt3LrVtbM8SI+PPFB6Az04FEM8vI4YvHOLMTzWZfa87nRJvUp3jjwU0ti6TigXPEO7UL36dTO8v2uTvElr1Lytm4q91pgkvBVI3Dy6yTo8pr+TvNZW+bm+/bk8npmpvUzZdLszf4U806OnPFn8UD1zeQs9gqEZPGBtFDxSZsE8hYuEvM3Tnbo6ud48vYFwPUdunbunSr+6LR3DO4kNJT2+ZG66Co40PdCQ7byR4ba75c3Cu6lKwTwMcQA9BHs5vTnm4LzakSU8bOGhvHATO72DN/880styPBdocjzrsGm8Nt/8POnj67vfugY9Aw3gvI7p0bwvMck765qsvLX/pTw5rf87VNTivHVCDzv2qCy8eF6FPct0m7zE3Fe8dhSAPZKniT1go3U9Xpr4Ot1rAL1BmbU9F6Z0u5Ty77xKrCs8fTCRPBjvlLzM3US9tKgYvTGJozzJ3aK8KfOKuyX00Dv6KJg8OjdXvPUgdTxSjWG8+F7Iux2J2bx5fhA9tQDQO0V9urzAWPy7GQdXusJKrDzpmpi8vE1MvSJ+FDwjY9493bOtPbgdq7s7vVw99T6QPSs0ALs9fDG8Tj1mPavlcjyh/KQ8dQmQvJwQZz1eqas9NEc6PYGO1DzvaGy9NCBBPWIynLrojy09PupFPXHAJ7z2uU+9Pp/ePF2wJjwITCK8lLeHvPDLpTyiuSe9U5KNPaIM+TuZkQg9cEhzPfetMTq+e129f67bvPSLvrz6ffm7QUbuO9H8Zr2uPFA8ZYZivJ3oJD2atkK766l7OzEYiDvlp4S8X4WWvPDGTr2q/2i6eMdiPf1ccz3JbCI9MnWtPHNAprwESTE92bPcui5qB7vbJA+88M00O7XqVbzyuCS7ikYFvcapN7wNHow90tMIu+ac6rsY1oI8LAeuPCTcCL03pcu77KzhPG6hBDx7xW87K/U+PcaRprwxyoM7hp5/vAshNz0e7Wq9q7GkvK0LgrxOEqM8WsuBPENOOT3LakG9zm+4PFVyDbyFlaO8bQ+FPASc4bwLNn+9RPg1vCV7N71Bep+8aaA2PKdaGTxIMUI9w0TEu644N73Dnbi8p/LhvFxiFb3mbVQ8eQyfvB5qcr2XRqs81BJbu01JRDxazjs7G9WgPFCmKjvaVB89cLM7PBmBczxZKFs8nL8wvelgn7uWgO+72AbMO9P0Jr2Tz1A92/rwOvElCL2zxku9/sYLvIiBPrtdxqO8XQcvO23JkrydtpI8OxCyvJhjl7pZ4/Q8IgChPW6j97xtwX68/MLCvHAj1DyGFQe9ORJuvEHLaLohhfC8r0XrvDbHabwSDYG9nVsxvRhfO7z8op47NrG4uzv8Wb04qkW8PbTOPBj3hTxOq8q6R5bYvLMgmzwQR468YK0PvTIlxbwB+TE9H3LYO8JyDj13mmu8QY/mPF3Tk7zlwZq76MKYPdKIvDzUVXa80sImu2hYIDy0vRQ9MGtwvCn5Vb0Vcwm8CP7xOURcVzt+yyE9dagbPFDIxzwLTge9pEvVPLDKgD0/8708Y0H5OyfI3Tyimls9N93jvF0BIbvspbE8gdi2PJb0VrwmdK69J/ukPBvbbDvt2YG72rf6vGheszqJCPk8OHHpvEyxCrpYYKM8ruARPXGKszvNRAK9ZGwLPVbzez2nfng93K6IvYqxxzwNi7g7R3JqOyyBXT05yya9P4LLPViFqzs8Ji09KGKZPJD0K73kXuA8XionPb3qgD2LTcA8c8pLvLZyeL1tpNg82ctzPL2DiTwqgAY7GK7+PLtkE70P+hm8YDYgu5zaVj0L6B+9rzYXPdQdE7v1rP+8uuRfPY1kRDzWxR+9EVMwvIwyEz0bv149dO1RvHWkHbyXpB091ak/PJy28Dy4snq6vbuDvIvmcbyPywM7AsdqOo35irwSIMy7TGsWPYXp7DuTEOQ8bDcfPUN1Ij2Zcqo9ApDuvCkI4zyE8bC75QlkPTnzUD0rInC9yxvuvPRCozwmHsI8nQS1PLBTC7t0s188jnygPOUZGbtAePw80tKKvdfCmzz3IP68y5rrPFLO4Lupbdq8yMc3PCX437xkUuC80ZZAvdAJUrreMnQ8O2v7PPxSi7utwgA9OEANOqFpN7t29Yw8pdoKPWbSJ7yfoO+7YzpNu/XkGzvJSN28jaT8PHSNQ7xyEls8Pt7KvPxbMDzkkkc8+cVOvL49dj1jajc8ldJqPc636zx1gq68O9o7vFdaVjxJivA6ybIHueusDLwV3mK95WnPuwlIiL18zDc8dtyQvM/SrrxKSgO8u+pHPJjsL73zrlG9Y3UCvREmd73VANy8/fFJPZ1eBr2xcr08ZIkovZegGzyB7iK8noIFO2TIizyKzlc9k+jQO7nsKzsu29G8ZtacPCXs3buzH9E80JNyOcNpWD1uvGu98fLuuwii2DxKXyy8+Hm5vHfuvrvOkCm9Zd9pO4jTmT1PoBQ9tPD+vN+h1ryL7ka8Ztj2PH7jybyboam8n2/ZPMwK0jwntTe8V80HvQcBPr1w2p28eRmGvd1iwjwb1pq8g8KAPL63aD1BIxA9knMNvWug1TwIRw49sWy3vEJI6ry9qVe7bMhEvVK5ND0ayZO9JwEIvSZ/BLxWPN+7hE6jOyJsBTw5/dG7WrMLPXpxg73qmqW2xJ2vvBlEgjsIBNk7UBfgvAaFnbw/ycI8cZErPIgtp7xsqXo9OeCNPRe1M71LbQ48EieaPaOmwDzrc887N4fMuwABhbwT6dC75liHvCOstTxTs0O8tdVYvBM9FL2qIsy6Rr3bvEWvsbuvBAA9AtwzPCQVeDybBi88PrDoOmZWerv+dRi8g4+6PEPuBb0eOyQ9Y7h5OigAuLzSbHC8jmCmvEl9nTvHarC8V1gMPfqtwbw+qYu97w61vNtOeL0A+sS6NeoBPdcwnDztXCS99VS7vIofWT0nShw8GJABOdvEAT0t8pU9pRYfPbsVejunfyg8aoWXPKiTlrz7hwO9CB/MOgp967xc2xC7T/w8O1XVjz3SUNK8V7uDuy2Eobtm8lY8nT3+PIV8dryv28y8S5xJvcCf47zw1YM80X2zOpWN+bwBOTe8V3QpOnqRdzwl1ZG8cZj2uwNzX73HMw69iQhGPXpwhr2MDSq87GHVOwkAOLzgnMa8qivwurIyHLkLcyG7t7tmvVbnkLsKJ9K8kJyGvBIg3zsrd508WmTcPDj/c7w6FeM8RzoQPYqrCz1Sxio9NDaPu7stq7u1w8o8I+snvYzgzTvjY4K8Z0Q1vE//Vb003Nq8uyshuqRY2jwWT/M8o+0du3PfmT3RJcy8KsRFPH3pcz2iToc8TT9XPWabfro8hpq9xCVFPVotM73RGRO90HhRPcrEUjyrdQO9+cDIPJf3VD2z4jC8za4mvfHTJbzJ4ws8cUedPD58ID1E/RQ95fy/PUClRz1ROdQ8IA8ovRRmXzwLpxE8CrICvWoRKj3XajC8aMH4PEuGnTzxSHU9JE6kPTih/T0pXdo8vBi3PU6Gf727LIm7ZBOdu+itoTzQTsM7cH8SPQ8+DzvDtiC9gF8PPgBvND2CpoC8wDmnPFjAiD0qF7S6GVG4PVfWUT0N0+K83Y+vO4Kmbj2b4109U4IiPDPz+TuiiR4+fqgcPb3g6z2A1c26aDl5uz5bsTwGtds83rAbPfWJITwV3FQ8qBnWu5wh7jwr+gk9CCJEPVB5kD2dprw9Ne1CPWxOLD0Xgey82egQvV6tML0bk0M9V0LQvGNeFz0R8488tMVSPTWF9jykREm7UKPEu1FyJzvdSaw7gW+CvLhMgLrVwEU9pChRvawa/juJ5N68bN23OyhnzjxOiOK6Ivi9PAZcQ73eBgg9nDmUvIj2mDyRWrM7YNuevXHPuby/xNg7xPVGPbcyDTxLU/07r78tvfvbLz26DV49KblgOnQX9rvm8ka9wRXZPC4Hpj1BtL08AFsbPX6qjTzXE/K8FkAkPV60F72PF8+7qw8JPN/72Dwcd0w8Wq40PLAku7w43Bm9wsYiO/dkrrxhsyC9PI8bvW/ocLwYpWO9s5MlvfbsSL1XY+U7Hi8+PNKxej2mvzC9mQ2SvFrm4TxUhpu73bkgvBU4WT0dTxG8vxIOvVnTIb0fACU8mtEyPAHPJ70Fx+O8lfKRPHzejTwJFJ681HOnPPuJjDxRkFS9SqD4u+MKTDzO1oy8+e6BveMR3Luc1bg87DRCPbz3gr2q1KM9FDwDvWcv6zyEqBc9GpbxPLkUkzsKtw69rPuZPDiYoryQ/pq932WwPe0FrjzDZ18969PTvAffOj1RXUM9hddCPRr0DbovwhO9O06uu5BWh72uJFG9TsI0O2al87xoqKG7X01Wu2w/bT3Ncx89OXKwurGMFD1Pn7+8dZclvF2y3zxEkxi95h8JvDhOIr3M9WY7gZpIPdjVuLxwDN47nYbcvK9BDb133Be9i8IyPeYlkT33bG08QgmwvPI7rTwxAo89oPPEPHkHDzxSz4k9EmqSPJZqjrw/wUa8jGnxvV9UiT24xi69NzqOu1eFebyF0Rw8arLWPF0WIL1h3fO7DtTnvK/r1jyCrVE9DUbRPBS/K7zBwiY9tg06vSJTmT1FLje8PXCdvQcTqj1RZok9HOYCvQb/ETwmYSw8PQxMOysBajzPalq9BKVnPbIonz0Zshc+UJ2ZuhGSEj6usxO8rt28POsMYb1zXRU80D8jPQW057wd46w8A0OKu6hBKT2QHEg9qBtLOb07pLsDG6M9dOEJPV/nPj1ANg89QsYKPGijRLvvTYQ99/IZPjgozzyF3ro6wMV9PVcEFj1oijM9cpn2vK1QQrwV81G8fce2PLIdRLzZGcK7i4YrvH8Zdj2Xouk8MyeEPVwn/jx/Cdw9lmthPd9KtDxBAeg9iN20vDmKED21pFA9Hf5OPAEPvDzSPR09U7ukvI0qTTxxPNq8geGpvH42m7yeyY+7RjyTOw6XYzykSTK92Ax5PZpuET3tvLY8Mig0vCaEM7uK6Yk8bCVPPPF7U725mbo8Epm3PcGlaL2SmPo8kgo6PBHzYLvj5Cw9cCAVvQsKaztojzg9xKvGu+1yJbzkpZ84IIFgvO1GQz1Wh+q8DS8XPZMbHr1R+qg83UFbuxRNo72//A46qUgGvUBBe7xRV0I984o4veDuBb2M+DU9xllqO+myMT2xeyM8hEuOvE5KDrtCABs9UMDuPAZ5wboultI6YH1mvMeDn7xzAXQ9t900O1DCFL3WoIe8ZCalPMCvhzy0RVG8B79WvJZrQ7oBgVq9pysmvczSzTyqNHK8G3k9PIFTHz3TUDk8EngFPHDDgD10O688guwpvPAboDyUJ1s8wtDovDDQHbpUv6a7imh4vSqd3btOrjO8jX9dvE5YUL3Nwlu8nvhOu2q3azr1cQ+9ucyfPEOPGb3EI+K779wkPebrrryhXYS8xssCPRxcVry11gu8lLfIOyAIFD0884S9nWbRvJ7OB72+rAu9XLnXvO+707xi/Bc8HSrgvKPodjuwOEo8cNe3vAubgzswIk49ZjoiPOp5oLzryAK7NoLmvM43CDzm3tg85u7NvLtQ0rs+wAs9T+55vC7YvDtujAC9AqbNvHWlgLyOtoU9aw5JvB4+grwTaYq8Msuiu44zoTzURro7AlDcPSIr0jtm2zE9ONIsPdG4mjy6YzG9Hc95uwQHF72GQBQ92kWEvRps2DxOvoe7w8sdvBv6bLj16Ia7l1SePDgvHL3iPb+8ItoOPB0djzslIjm8mDCCvHcRzbyUo4A80o8kPYhD57wuWUY9v+QMPVWMZbwIBeY8Uf0WvWCzVL2cgty7fJjmvK55bTxf5tY8hb+DPfWJhb0vcWo9zUEUvSesF7xXiw68qbgBvOx3KL0vQfe8hYLdO8H4jTwl6HI9VSVUO/gNSrzZJam8EDA3PdY6T73N65g9L465PB+PwLws2SY89n9OPYraUz16XAE9tTp5OxXInD3PpJk91IYePYHZMD2Y8KE7ytYqOxx24rzv8A28Rxm/PKoxu7zRYMw8NnmePHD8izzLdoG9ORT9POXkWD2P4Lu8eu+7PI4JgL1mAKU8q8yivAol1jwLcWK9syGqPLnr6LsKesY8oIDjvPT9l7y2xok9E/jLvGSDrbwT8ge81U37vIhIEj06+FM9hgqtvEcYVL04AxA98zIIPVTuyTy0HA49+DPVvIKjpbtTFCq9jEMuvY8d8TwhIaW8kA6MPRLYETt63pq8mRbEPNBWXT3G6ZA8VHgavfVaNjyTCCk95bw5ur5w9Lxgzfk8CZiJO1HQBb3ifUC8n+u7vDqfETwGplc7710NPQDEgTyHIEC9QwtIPBpu3Dy2LIk8wCX9PEr1G7y4sOa8ZafhPJ/sAr2XroS94iL+PAue3rwKcBa8ocgrveOdKr2SkOu8uKVCvBQzUzwasJ69+d+5PBXCBb0+qAG9i1uuPL0EdDoc+je93qliPaGB07yLa3E8jeS8O+HoOD0b4UK8hb/3PJkltbxUohA9ylS6vByhF7zDBXM9O8wbPIDLVzsI7Yk9nfNOPOuSyLzo6cM8lrsIvbBADD1Uhhs9es+MvCtQmrzBgq07K6TeOclG8LwAnYs8uoVwvVAeU7ypszy8YecFvLcBFzylZSW9tNBuPBTNpLvxvoO8JXkkvWZhEb1ZGzE8JeDsvIZw/DoYfwI9Qcj9PNi9Pz1UohG811cFverN+jwuLRg8bhwKPZ/lrTnG6xI9GALQPE4RsDzXfXc8HnpDPGIV5TsrE947qFnzPPSle7zvR1U9oOFQu+Mq8jzhazG7iHvyu8q4eT2VDBi8xPEcvWfTtbyE7Bu8PWqEPc5CrzsVt+U8OCf2vGRQLTxcfqU8ULpZPY0dq7xGUJQ8BAcVPLsY+7yVNR260YABvNbejr0BIZM8LcWEPMe+V7yFeyS9B9k1PbpPATxR3fk8fOApPZ8EgLxYmMc8Iw/tu4bz9brrICi7yvUluCjiCD1wdHM7GZeguyCFC7zNAiI8gL7ivJAweLwE/Ny6TqSRvAaBjbuGbpa89cl0PSdFJD0WKV08K9bSui+uhD2JFh08EGFfu8fZAzztNRs8ui8uPUhy2rqfhoE9o+fevDjHozx+Nfa8DklfPYSuKLzsKii79SPjPGwpGj1SAQy90y02vLTRLr35+YY7eE5HuxCCK7yVNqi8Ra49vCJvt7zr+H083sY3PVxobb1IzFO7MIpNvIpUbjxHO+u8qBqQu0hBAr2QO6k8jy5DO2i8nrts9DU8jk3yu/vuPr0eaJI8yLANPGd3l7seDvI8jroVPT44Br0P9b+8YSE+PThZLj2ud7W87RURvUiwnLyN1XS8Z6ZCvfgbdTryTh29kbsUvW8k4TyN5qe8oIQMu1Kbmjyi28c88qYlvBx6rToO2sq8tXB6PU+7nzzskAe90DCKPKUBiDzco2s8t8RgPeTcoj0auMm7BFYvu855Hb2jy/4708SdOyRUqj0laHg7itZ9vQcspbwgxSu901Yavf0f1byitzO8buNaPK6JorsTIbo8u3XFPFJLgrxyR2e8zOgjvX2Zvrzv+NK8p2VDvXPMC7vhQgM9qgswvKEv9zu12tW8Qo4PPWJ80zwV08E8K+tbvfGr7rwosAk93LlsPdzKETxDRRk9vXIUvOb9brz6Oog8SzSOPH7pLL3Oevk8KWcyPaNI/bwwRQu9Gh2MPL/NoLztqZG9HkfwPELFRDwTSGq8HVGlPTkJNzwZ1N68fu8qPICb/7xyMru8sec9PCMziLysqV28dxRNPT/w/zzI0L08QyOQPNIVkDyiaTQ9uKKuO7bzhz1gcc28cwI+u26QI72o+Ci8KNN+PEhUMj32BKO8RN0mOSGPMLyxhLW8pCYSvYeH7joO1lS9MVZZO9HFJDoSpqG8jnD4vIsaKr3n8mU9yuYkvRRpPz0af5M8cOwyvH4uDr0DGgA9H4pUPbyL5bzZ1hK8OTkBPVMLJTxVwXU9Yx6MvANGhTz4JNy8h8WAPRJ9s7ypX3W9N1Vnu90QiburYms96aqzvAQ/Tjvy15E8w+tCPcBksDrR5wQ9oPeSPH96Frx4+LM7JYBhOn9IlrwYIxU92EMqvcrpDz3ls+A8OvE2u0LD3rzZ3Zq71hN9PIYttDwt5jo8ozzzPNef+LsUKic8fbBAvRz96zxeVmU7/Jjcu8trOj3RgQo9MmGrvXjILzxIWiK9Ed4ZPar6nT0fqDS866ASO6vG9ru16os8uh2nPAQ3RT0VEZS8eBA8PQLB6rw3haU8yE4JPUXr/TwxYZe8N4GsvLE+Y7ymRis7vhg4PeC8Hr1cqCU85CjpPAyQ7Dz8+sk8KZI6PX/Ebzw3m9I8SH+KPHRWXD2xcmm9ruE3PbjQl7sg1oO7j+n6vIotYL2xFqe7ue11vFMmZjz4bBu9M1w6PTKpBTzBsvO7D1muvMl2wbx43Qq9N8iFvGBUPjn5Wq678c8tve+oArw2gtu8qyudO+AgZT0Hm5k8m+cZvGiqR71h1y29ukNPvf1psjwABry8fCf2OsDdmLy5TDM78zwsPRJVqLwclie8xirGvH/v1jyMFPy8kjgLvfRRkDu/Ei29OHRnPB6BCj4CeB69FtrpPCjZ9jv4KsE9iJJQPGf35Ls1v6m8yMyGPcydX70eEYo8WuNaPOyN7Luh95I72kLcvQ4lljuuH008QEqqPOQTNb3BqTU9aopjPhyzDT25Kgc9uQ8fvaEnATxYw7u8CyEbvsN7ID1IVsW8ft8OPafZSL3TTrA7ams/PR8mmbwDmxG9AmH+PdE3/bzmnni8klFtvElOiD1oHoE9ZUUjPJQXyTxzwwO9NubLPW8DwTs0GW09PNNUPa8dBD2fpAg9k3N+PYSztT3QMwG9fCURPZ+dXzwGsqo8utxJO8tlMz0fiFw8qq8nvfUvgTw1dzI9GSlxPcrFnzz9uRE9owh+vLavF7u3qK88NMTqvFuukLyed2Q8y72uuwOuGrxDgE09iroMO/n/ez3jRRI8TJsTvAUEezsOEam70y2kvMiRRbxfLbg8UeOePDoNHj38CFC9QTZBvKfFS7z426g7jT5evF49fLyGbMA8MRGvO6RSD73w+yM9N/b0PGsOjbykS8w8eay0vGlTCj0HI9a7ek7FvGZjN7zhNby8iOG8O60irDtyyIw6gzjdOtbv4L2yhTY7JeKEvYJRsDyy8wo9yp4GPMYHBb6T39I7Ts6Cu0z7hrzQq428qf/kvO29ET0rclG6vw3oPGjP9bt2qAM+Mn6nu0F+YzxrJ8s8ZJ2EPNmYpbzfYAO+V9ZKPRqHDbxKhxS89Tk0PdEU/zws1xE+3DpKvA6UkD0dGPo7Pd+AO6dBiTyoAL68hFy/PAqdLD1P5KC7efjau0mKGr2izke9au0XvNPtMr3d6tw8z4gDPFAS9T1LrB48ABPqOkaH2bytA9S9OB/qOqE0u7uW1T09ZnoVPcSXkDwmAdI7gsDBPMRVgD0h2gK9FEBOva4Bu7yLrLc99CVuPaHhuDwrRxO9/AKqO+6o5ruW6R47eu24u5hxTTwFajC8ALvDPOxc4Ds0ohK8xnh2O9u0jrxi/4s84+KOuXZPVjzt30C8RH02vSmv3jzIBQK9HemmPHSDTjxPfku9OirovNWwfLwds8m8u0ARvcvitTyCceu7G5M9PICaU7w6ExY8VJq4vFKJULqS/o48yDuxOsetYLyThwW9N8qkOzCMKTxJ+v27cxG9vF9YhTw/epg9hqoUvKGDJTye8is8AK+dvfaFcztQoq28mHQmPaCt+btTFr+8KcvWu3a8ozs2mom8FxTPui9mJr3jbt27HqG+PM74cT0Soq08M6kFPCDEDT3GdPo893NMPWkJBT2ybJG7eRD+O2gfsDvpgRQ8dOzEOypKwLxVP4G9XRKlvHanfL3wnAU707MOOfRfTr1FCag8nObQPPZUATtSOkk9lEtiPUoxFL3Zx/48gK9YPM+cTTxbpuU8IL6wvNqUkby2Kcu8KurAvJSuQbteGDa9vX8AvfDujTyIo0a73To8PE96a72ZB8i8LICIvDzdfzp10pS8+vTdPKkm5boIzgU6NQMCuulXpzxRl3a8desJPcUgYjyqbJc7Ux2kOmS9fzzpivk8c1/oPCe+ODxgdtc8oLNoO+/nGT35PVG6iDN/vSZmJD2mkSo7vaEQvaHcwrsANtm8cAmBPUKfdDxjw0C9tDmGPBn9Q7zKiGs9+VoBvbgOir0LgQE7+g8rvJ7CTLzIjoO9DMlRPOOeTT1+lWq9g+sPPZLEi7ypUpA9fk5WPJWouLtO1Ac92UaBPBuakbz9iq48aQR7vPfEW71dpHk9vNMrvNnYbLwZfSY8x6U/vXDveryzMMu8I3R/vA5XDTtdtgo+MtYJvWY4cjzw1ZM8O4ADvZ919Dubc+28KjIAPSGpSTwsywE6fcLova8LZDszgby8VH+tPEe1TjxNpMe8BVHfPcARtjzS1oy8CkEMPXkzOLwQ/gS8m9eOvcb6w7wzIlm89X1mu52ZiD1fZR09X+wHukBmKjzjmiS7ipjcPNSR+Dx0jmk81rmjPX6udTvmKBO9kWogPQ4+mzxH+mK85wqYvfe8Ij17rKw8p6uyPB4AIj1wokM92YSoO9fPGD1bzra8fuYtvJBaCz3+Sps8ndkjvSEmHj0QeiQ7M9ETvU4apjyZ0ka8VftAveyJCL1HZVk9iyc6vQIG2zsNyps8prywPKkcCb1YR0e8fntwO8PQUjxf0Km8iG/wvC1LLj3j5Aw95+U1PJOdlbx27kc84elWOwrbzTyyfRm99pNkO7pdnLuiWwi9qf3TO3JNiToSs0m886dCPH9XLr2Z7dK6dwxUPLiZCzx9RQQ9vJcTvdFJOb1eA+s7cbdfPPI9gj3niZc8E8jWvAIXxjxz0s+8W5Q2vZxNoD1SJiA81LRhPYR/ijwCq149eqxgPPDCRT0dd/y8mRErvY91t737ULM9Lgh7PIA73jvwKwI8leWXvOTZVT08H6o82+elPIPfODx4CQg+Xzh4PPsttzxjow+9E0k1PLVhhj0Ajca9V8ANuwtu7DxYdvM8kerNPNmzTb06hO49TVP5vO+QyrxLgQY9teQUveZAVz2X6P09c+3fPTbjGD3ilK28S9iOvM7hBr3YPp28ATaSvBsgorySLs27+E9vveBNuLw4BRC9jeUhPX6+3TvnCQk9wPNoPd4ky7viNT89elSYvNtEjD0r5BI933O6O/iytrsuzTo8blqzvfEwgzt4Vo49jz4CPalRcbxdp+k8NEH/vKHvCzx/uHS88D/QvBry0zzzYuC8AwVtPapTabxkNn0991R2u12AFT2oLy29VEgDvQnBMTxRhKY82ZQcvQyCET2XBMS8Rf+AOz2rOjwjJpI8SOpcvZTjRj33EIo8DjBRvDGy+7ziKlC9rEonvZHshTz0pCe8agoLveJ/gby6MkA9iIgivE6ij7xl9iU9bQdjPIserjpVXpW8n8I+vRXWD70QKGy8nubXu6cZLzz6ie08DCTbO56r2DvBPwW9KK5nvawCgLzhfeq8aM2xvV+ahDp/0Bi9o3UIvVf0LbsXr4Q7jF6avL+wbzwelim8Yqf6vLUhmT2cT2c9r96lvJZLDz16Czw9Fxg4PSyQpb3MpXc9yUCFOxf4AbyhrSm8/P+LPD3FmT0YqxS8KLEdPdZfvbxBSRm9V9sXPbmwDD2ID449TjtuvBKMyjyzmYo8eopJPSEhI73r2Ss7EG4IvLZZQ71uqf685DVdPaB3sryGdOW7ZpvEPMt05DyL1jc9CNrSvEy5JjxzgzI9GTqhvNcnuLyONeU8rjZ2PSORDb2+S8q9gaT5vHi3oLsgQhU84lmXPDsEkLuNHay8v8SWO71j7LyQf7i60yafvEqlqT1mX7c8xvTTvN7QAL3DxAm8ezFSveyv1by0loG80evwPL6uUbzXSMK8abckvdmVEL0YdgK7A3vTu3lgCz16nZq8DycCPfXD/Dt80xG5ysd2vbmFHr2sNrY8nMMrPYvyyjsSZrs8UWdIvMOGNrwA7qK8v4rvPOV9KDyjMua7L2khvE7EiDxY0R48jnvMvEDcUj1yq/w7ctKkObPeIz2Uqfs8K/Msu4o7STycegO9Wn6dvPHfir1McRM9Mm1rvSJupzysJcy8WxP1vM3h0Lsyp/o7niyRPEv9VD0XRDA8BZDYPKwVk7x2Z688WKuWO35DcLz5szy7JWY6u5qKqTtStjw8Y1KCvNR2w7zZsrc84XhQvSxZobwdxj49gZOqvXkKq7w5Xpc8W5ZcvWYYlz2/OaC9hLoePfBAOz2W5d08QIDyuwgh7DsVgty8TubGPBB5Db3eKBC8Mz/RPNhcFb0OSk68vJhvO9rrL71ZRAg9p93OO9rRSL2wsLi634u+vPossbx+PAG75GmuvE887DxBec28MMHRPPthubtPUNI81QmFvG9beLxsnQ29SQuOPPp45jzV44A9VkobPRAG7DvtzPi7VTk3PGeEPrtMgys9ONLnPNfi4ryv+bK8+AIoPXRtFzwb1OO76cYRPaCCPrzogwm8z6xivOIMcb1ZZtQ8gpIUvQ3Di7xf0La8S6qyPNjWBrs7e/I5PV9OvYLoK7tsaTW9VP4WPG5ANDzC0Qi6vg97PdWxgTwEbpI80+WLOyl9vbtTYu08m1gHPffiH71gkwE97I18PAYa7DzeImU8V+UYvcMgEL2oNGA9jCT4OwEnLr0lHSs8sv0xvMqEYr2MtYy9ie9EvWuXBTwUB7269+70u83sCzzbu5M8lS2BvZcFFLzjd8u89ogXve16hryNk3G7ZusCvOG/Mr1Hem28n7R3PW2VAb1bT0+9aEkHPJmgkjxDFmQ8RZcJvbRK9TzUAMG8IHQLvRiKlbzCtlW7v36vPBtQmTwE8TC6WEXlPAw3IDtvMtw85YEsvTtvQb0cpL48NtAqveUzFLy74EC7bdZvvC7mXrw+ICs9MWubvYU42TzxA409/nk5Ok85FbpNg7I8yrpgPcr8Eb19Zyw77A63uzp5iTylfJw7yR2iPKs9T7wvr8A6TL6kvItBo7yrI4u79pmLuyYTEL3E7UA9BsuEu3YHKr1IWwc94uW3vJjUeTyz0wW6o132O94eqDttWo284gGhOozTeT1/eom9TK0BO1bNVTyaTQG9bGMovdCkhD39mTa8iHd/PVCrgzwNsxU78/JpPBcPnDy/9BA9UzZWPHUojjs1TK07hB8mPTPHyDy/Qfa8TjacvNWRIjzSFpm8CA05vEPt6rzNDbg8sThQPCiS9Dz6MrQ7UoSUPR48Frs0NMQ9btahvR3aRz33SHW8c4mtvakPnLoxlvQ7dK99PbSfI70CZYM9uvv2u3Vy2D1UDJy9JKyIO4DzKLwhboc8MVszOyK+1L0o2vg8JA+8PDiAnjzugh49ghsCPfeeqj0oPAq9XxwqvSobYj3yu3C6+eLhPPuUZTwsMpk9XjNWPKdMyroER4q8OZmEPVI8CzqpwXK6Uf8fvbNYsrwENyM5OzgfPQmlAztDib88l74Ju8ex77zPxXU9Wd6NPGACyj3kdbk5aDOHu6//2DxGRHM7TpxwvLcx6byxDcm8++kRPSl9IT0BHWo9aPvzPASnHjyOfFM6cJr4u4FrhzzcAeI8FeAOPFgejzys3Qy80L0ZvcoN3rxDDEY9KVr0PADTLD0rwyk8lX0CPYSSIj1lZfQ8d46VvINvtbvCJH87f0nyvE4faTzJp/s8jVlsvDFjcj2K5Q68DITHu9Y86rvgEK68uWJNPGx9HTo9Jkw9o0CVPH8khDzTx9m76sctvYn4L7u+99C8zezpPKFpb7q9r0w9urW0PGFXzTzGvuI7HSLNO7/CVT1NweI8N6GuvO+39DxNf6w9eFYwu5s1+7vgA7O993pTvCIXEj3Nue86xMZlPHMuaz3qN6M94frPvGelGD32UJk8CeR0PU3razxsYSm6cIlDPXgInTx0kio8pnH6O5ia8zxwtoI8C8M2PFnzcz3n3W88Yhg5PSbXo7xicie822hdvFQePLwUbfA8tjAAvaxcdD0cvt88SUvMPLCkzbx/UzI9Z865vAtJrbxnfAS9h5C8uTpdzTzPMjg9us7WPB0sH7zDUGi8xiDEvCO8pDyPQUa90u75PBPSPT2KKZG7ochiPD4fgLxcuF68r06cvIuRnDxif3Q9wGPBPLa9hz1eSx+8g+A5PZmUbTxHzV28W5zDPBI9vrx/XqS8iiAlvfXJTjzfBho7dsB2OPnyPTyumn49WLaBvH0VBrwV6zI9uaUuPU2OJjyL0FW9jmKTvIigljwjYgs6/vY+PWr3J70KuKY8hhmavEmTIj2brxO7oUr9PAIjn7wAMy29onEIvTQalbyz2/u8QIMTPXuGJD0zNQY87in+vPO5aLvXlai8Oq0yPeVKGzxfkXA8xnNEvLUmd72Ug728TzdovNb8NTxQzj07EEpuO0gPnbwZfUA9pcTrvOQ3LD183pi55NGrvOe8UrwoMrI8GvRcPZZhT70WYE65aN4APGoEJbtrAae9hEwnvFnK9jzcn2S8ZYUGuvrWZLY7uKo9Ov6mupLiAj3fD704BN9BPKnnVLqQItm96LiVvP70AL2r+dA8O56VvLqa8Lwstss8AbVPPBdCfr3Xpqc910T1O5x72jsPJxE9KNxdPIVnlLys1YY9SdMYvEh5d7yQx2c9yqd7vGBX+7o6OEw8w7O1PfK80rx97G0855sUPXZXHztOzhO9Zky7PJPeqjxiCVs8ZGCBPRGrQj3IgRY8OobdPO/6Br1vCYS7v5XYO2UbRbwU6D87pNTKvItSVT1NWo49rBCRuzvMRDwnW4u7DEVGPXpuBz0RyQU8GQW1O0fr6Dvf2fW81ASmPK14r7zcc4M8gN9+O++LBj0VowW6EG77PGut4rzyxpU8vUvcu4nsvju5EA07WBrmPIQreL0XzR483aQ3vS1LFD0jaXK9fbD2vLCvTb3pbUk9Y2QevQz3XzsprYO8oSddvafIJbyy36I8pCS1u6JH5zyGRKU7n79XOeMiPbzRAqQ8kKpmPWoMMjy/JL87iIEZvVYeiruj5zM9/6sIvWkUubxMgO+5WFopvFSycT1kaou94Z0xPI6Jtzyurwm9SWmevO6iVDwJ5DY9sjnivFtPNL1ToQQ9VFdFPapkH7z9GIG93WMxPVGjobsvCRY9NPipui5PBzsb3be8lD1YPR6UZz0nGR+9Rgr6vGbMjD0fzEW7Db0Xvfpz9Lohaqs7XGM/u/q2a7ys3xK8we6AvPWE0DykskS8jf7tu2SXc7vub1M9hPdIPO80ETywm+E8gp1HPFOsBT3loLI8UciJPf85JT3q4q+6lXs6OSaHHj2rl+08Hu45u+F8Nb1/KWG9ES0rPDRxvTzKc8U8glMQvUR4Gj0GklG8aItLPJmrYDxPwha8YeZPuxLUfr2+nbe8fWBSvUP4VjxLgPE6L6PgPGU/LzyB/5u8LSoqPNnmP7zZrpU8GgMbPKbz8ryoWoo4E5XZOgA/F7yn7ts87H9SPZy/NLwVYCy8+h6KvUN3fbt8ZFa8aciEvejMDTxWP5E8AWq0vHslN7znhe28AWe7PKl2Or1k+Rm8bL9vPVY6ijt0/2U8uCqQu5duBb3/d4C6OspHPAxT+7yXSSg8la8lPYVxAz3dfEK9Sa/vvPZJRr1iuwM93XGYPIEspjwG3de8I1wPve40Fzu9ikY7+vDRvDse0Tu3aJ48ENUgPBtw/7xNzYG9SrD0u+xNjTsrEAC87IpSvD6PsLw53K880Zl5uXQTbDtho+O8J9OCvJjC+jsj2/O89+oPvYbMIby3MxM9jWW/O9FwPD3CSoG7QGcYvDneKL2hYIq8Iy47PfvfPTwn+r088qiyPMEZmToaHKK7+xnDO/MoujznDGE8btBxPDqiuTuPkae8UpQAvCre5rwuLgY9Y7h4vbMjf7uXq5I9/t4nvD1xC70CNA26RnAePau6nbv8hJc8D3hEO4VZOLy3nsQ9SqztOhaHcbx89lq8NkM7PHB9ZDwr5ME8D8CKO9DqL72juYI8ltwXvLufDLxUODa9D/OMvLWgsry1YY+6nJgyvUswxzpadHQ72pgJvfuDmbybwNK8Kw7fPCdWm71EwCi8qAtMvdssVLxUGNA8ovqavKIKiDujnM+82VJuPVht4Dxgggo9+jQjvfJMB708rgQ9OyS5uzaM/bupDyQ815gevZTwvTwCGxA6Xo5rPGCcqryDYmw8UTutvG+M6jzBIxA94hrgPPsDhDzGKps8j0CmvV8uzTwysga8Yas6O39yC7xj8Sq92ISQvG7XoTzMWyw9AvCSvPgo3ryfFzI9debYvD2Lfj2YKMc6ShvZvCvp8TxvaFI97mkwvVhaPz3+gAe8RbI3PWt7SryHtz29Tvd/PBK8Bz1yzYE9FCtKPdncqjwArem7lqBAvIRpILxWCMS859T8u3t7nb3dVp07pnQRuTGAnD3Ou7s8DY9lvATKijxFnxa9HBSUvNnxZL3RfDA9lTiFPMFRD73lJy26StLqPBRbczyV5Ts8w9LSvP+bnLy/Ezs7eCniPNrZxLwm8we9UlQcPdgS6LyUXAQ9RFgCPNFL3TwhF1U9SaWqPLTIvzwxkeG8TdmqvJ1Bnjyshzw9vw8rPf9Vjj0dzxg8NFjHO79I9zxSvhQ6t6L1ukCzAL0umvM8IroDvT3JezxdYy69xbcGPf7W/LxPS888LExDvaotWLyLyxA99+vFvFgaBDuNKGu8M+SNvc5qFzy1dlQ8gB8IvTn9jDzPjMO8Rpj2vBOYVznsdqe83diMPZsRP72herU8qwjzPHw2c70941S9kzaKPDSsbLxghzw86AMMPRXrNrx3vQK9ZbKnvTMhyTtyN+S8/wgaPK6x4zuXHyq9ctRTPVwcBT2feNA8TIwRvZhCSLzVaYa88txLvF8hCr1Ao1U8gljhO3aWMzw3r3i87KMePbCOuDswNqi9e1CdvAck4LoOPe08M88TvBjY9bvL5KK8/5CjPIH/W7zOTZS8amS2vBTJiDze+4K8Le9NvS0GmTxCXKy8V3kvPA+5Nzw05hM9FloAPbxRjbwNkKO7qpAevVMcTj2QEVk8n1grPQLLHLyDzHu9hDc8PaETNzsh7YI7DRfaOmRvnjzZBYM89HFDvbaOBT3k/oG8P5BlvDZEVD2KPOI8lzkmvAwdZL1a5Z47S2GEPNlWHrsAHRm9yVHCvNc9Gr1QvtM7QmHJPIcA/DzM87O8DQrnOw8riDxyPXu8G/2Ru4h9gj3mpMk7+f7YPNG6VbxrMqQ6IKhSvTYoRbrSgRI90vSAPRILEz09zag8pUPQOstyk7ymjZ27T5yWPOz0wLwmU+U8OtvxvCg8G73Eu/i8WKRMvY3iKb2YZSM938HEu4ff1js71iC9Ju54PdQEeLwIQSM9DYxdPBBelTqOjYE8bKgtveIks7zgnVS72BSZPVfcNryhUXq7jT/uPItTIj3Xh7w8oUUYvFJVNbw8lQW8fZIiPPYG2bsh4IO8ByHZPaGTjbv6X+28kl62PPVnIj0gV4c8FAFNPXc4BD2nb9C7hWalvEQghbvpYV49fEAdvQhtYT0J1ve8k9jlu4YUAzwTmfI8ZeISPFcWGr3EfU48ckb1vMAZtj3APqi7LwePPEr9wrwQYWu8raQevYKNDD0Vv6k7j0eKPKthH71AIUO794h/Pcdqg7yHXF292KxHPD0/DL2rAVi83gfgPKItybxr0/Q8Zc+hvJzGNz0nzCc9JtBbvHcHDTyprIK83WMYO9EyFz3CUSi93XjhPHKvIr3ySNO8TKxbve5TgT0S0+Y6BprwO4MpprzfGwM9HDiBvZq0UTrHlIc9hck7vJHaBjo+NaU8EGzHvGOpMzqXLOw8Oxi/O/pYNjwGwSu8zh8bPI1H2zpizDI99gayPIqM77sIVZa9WOWvPDWduTzdVuG82HN1vSVODL3CnuM8IdcCvaXdYbz7p9g7SXMWPT/LDrqZXkW7n+KGvOdfSD3EGQM9LQU7u5ScK724OMK81WmOPHNPsbz2SNs8AqoxPBHYDzwxl6A8zx91PB4r0rzoJiC8ENGPPeJrFL2TP2m89fMCPTqPnLtNlse8c5civfa7gzwIuPo8LAwsPVcJ1TpXhgA9/MD9vClPpTu/Paa8+uOqO9J+uDyLkAM9hEfzvLO/Gz2aK2m8hxX8vMKSp7sQmjO9KuYtOThlDjzI+MS7UwCEPAqsGrzhUxo5Z/0wvTbLpzqVJtG8Nb5cvBlQNrsYvbs7n1dKvWMIQL2tARS8G6NpPNwQMTzjaNs8VOAfPcUBdDwINBy6t339vKNO6Lymn2W8m3kDPOr92Ds9fwU5xeWVuwH+mjyTzMw7AaYSPO6uFzzIQYa8sFb9vC5mcTxw1Ew8X0vYu1FYTLyD/Is9TpW6vMTa1bvQgAI89NQNvct+ZjtM6Fw96IHlPJtemzxYmJE8byFcO9+I6zzmN5m7YNFPvMKfSDuBld48KWkiPFLGpTxJuXi9V5oSPXvOjz1zCCQ91h0cvHCD0LzqAp49J4/yvE5Xsjyr3XY9CviGPBlhJz0euXm94havPfbdsjzYOy293LeXvJalwzsABhQ9zgEXve/lDz1Wa6c9vtOSPGrtt72YHtO5kmMQvW1wgzzjiZY82cuzPF3RUz5d3/U8j6GSPFa0Tj06k4y8sfEIvd6F8L0BNsw6yAWrPCvjNT1QRUg94mCPPYaIsz2ggv88s07IOvI96T2ETJm8dOT5PJqQ7Dzss1w92g5BPUQyFT1IQaE8oWGKvF8ThD2cN489TJ0mvG+nHD0/8no9eOE0PRQrXD3k2n48X/xYPUqkqbuKbJU94TSePeaepTwWyb49XyKUPToXmj2/F6Q84hTWPODI7bsoy4O7txiJOTRTKjzDoUs9XIgVvfmoQDyBisS7eBw7PYm/d7sDl2g990wvPfjf4jx1ro49pXckOwn5wDqriC69MBwWPLhv0jwQf4i8kKsJPbTEfr36fWO9VJYqvU1JbrwWbBI61A0bu3zoA7t407E8bQ5ovKZEG70p1hi9Wc2BPZeDkL2LVq27ySUzPXmVbTwq38u8pIeJOBJR1DwTdRQ9qAXdvOTjujzaN/g7krUHPct/RD3TvSi8PiAyvYkC3Dw7BUc9GX2oPF9C4jthxvo9BiQdvTvr3TzWMIy8JFrTOkjOKjtDGjY9GinmvCTRg7zwvUO9+liivOg6Yby+Z088BuIDvfjcsDrEU/886NoVParImzwyKYE8otctvJHZQL1b+PY86yDwvE1W8Ty0UXe9TO5BvSaIX73Yh9y8QRcgPa2sizsSug47/FFGPIPevTyp4+G7Yal/PL8PiTs1X4a9rCY9vAHBXD3jZyy8i+19Owl2KbylW2+81zcLPUtS7blLNvm8srywvamlC7y1rnG9Mxpgve2z3DxbU+48TJZrvdh8JD1MyrM86K7UvBCY9DzB4Ue9FQAUvbDoML3ilAi9UvLXPFjgI72olg+9za7pvC665TsTNie8B8zTPJwd0rwckRq9IOlHvPzFHzxg49i8FKwGPB2UXj30j5C8CrOOOq8QJT1yqaG8YODSvEjaB734Xz08fyh2PEVqoLuXEVE643gaPUfP0DyhhC69hvhnujV8JTtqh6s8kkfyuwuDpLzfaW28KKhdvfUTzbpeXJm8KnNXPFerAb3O9GS81gf4vAfdBr27/6M8e+F0vHiZSTx0zg29ceDxOj0CVL1TTH28KdWEvDauhTzNL4o79l/Tu/3SwzyfcJM718BzPCHwsTyMGFa7YkwlvEpkCzxbNGK8kccoPCWXAj1O2cY8v0hRvGg9I73Pd0a74f2nuyYaAj3ZY1K8LGr6uxsVqTwciYC8Kg/Ku+mFTD0lATE9vfOOPDRX2Tt6Qfm8O9F6PNbiqTngMKo7Q8WKvKGy6LqNMOO7P5ADPMNRKT0nIxo8WihRvS+h+bx0EUi92ULOvE/VejzLQy08dqSevHiJ1js7ZMW8oRQ0vVBTMr0Zed68ZEwoPe9ZKr0nhRI9ptwcPS+Q4rvzk0C7vnOivEGqEbuGPJU867qgurU16DwrUAs9+ZoPPBiEBzxh1ly7acEQPIDyDr0XqS08asiWO7km4LzsxoA9Mxf7vGfZ4byFBt47PvlzvU/0zrw0Z0G9PfP5vNv1tbtVuAI8EN0APRisuDzRvQo9fziDPHoIgLyCNAI9Y/eEvNboo7ww9TQ9ugy0PMH2oTs5Nas8fz/KPIToLb0P6pG75WwXvZcEBDsEMbK8xfkfPU+CYzwg09S849YQu/h8G70Q6UY8C2ZxPJTjyzuVmeu8Mk6pvHpbXjy8a/U7PzQCPr/3er2yfGU8PrqtvIoV2Dsc3yg8kReQPCN8m7xgaW076noWvbSczr0ktHQ8DGtbu5LfTb34W0i7pZ6XugcX8D0Ei/08KZ+0PLtOYr3hk7i7lKpiPIi6P72tUCw8czIPvGSkWj2Dl4Q9ZxGvu/0eaLzPSg49Mac8vG51Uz2oXnk9GbKuvF/vPTxKx0i8c0NgPCSyADxJ4Lg9VoShPN13fTx1mUg9m9QkvG6bTbwHLag95DLWvHFKl7oKMZ485wwJvZoqhb0FXA09r4MIvGNnk7xvoDc8PZpWvGjqDL1WCqQ8ibKPPVqFpjztF6k8AzVAvZMcI7uWoRi9PLWkPB05pbsssKQ7mtmQu2W6nrza1Wq97aV0PARoHb1giZC8HCHsu5oEvLyLS8c7uNXpPBKpujs5xoc7/EOMumVfxDyXEGq9XHUXPC/A87wGwB69m//UukVdW7w82IA8owIAPWuDkr0qHIG7U2RpPZK3xjyBeyo9rkaoOhyeN72MexG9LWqgPM0o3TwJRcK85NkgvLsnxztjTV69rgBJvPpUSD0RqoI9Y0ykuyQNYz1sE5K8rpfVvJ0hjb2A8Q491zt+vPYljD0IJgY83vidO0znZL2N+zI9kGlKvJIrYLtaIYu9KoSRPPfI5DxmFKO8dTOLOsR7ETx6l9488EsHPD0ZTT2wNRK8Ca6gvFD4T7wbY5+9hwYMvXjAAT1njs07Dt3CvFX8GDyYLH69b5cGvCgDZTyrpZA8ZfGrvCjByjxdwm89CUBzvKWgxDwoDEa9Dr53vQ0AsjzUFBO7tsMHPFCYk7yW8Ra8FLbAPEMdUD1TseK7WvlJvaGrHj1CWoc8+OOaPIGXpDvqsY89o3I9OrWHgTyayGG9q5WWvO81pbyMkh+7GAASPGPdxLyqgE49C0QJveO1drwaR847hrIjvRV0mDyvQ5U8SSMTvNXlaT1Dx2Q77sDuOwJn7LxnX1G9lsSnvD5NN7xMJnm8d3WwPGfblb1stxG91ddmvb6uHj0Bhpe8viuLvEW/Db3xptA8opNjvEVSqDubNYC9kMoJPa9TKTy0p3Y8uN0RPf9477t7utW75VKkPJJsOTzH9hC8PXovuV9EiLzQwKM8vKbZPBQYrboaKGE9N+FPvUzjCrw/nUw9pTORvDbxSr0Y0yU9G+F0PFDsML1Xh7M8StoDvXvzKr1x1sW7LDSCvGUTDb30m0u8KJUBvarLwjnnzio6x9WrPMxrd7x13ym91NY2vbR3ELyzth89FznFPA2eqbyreNw8zbAUvfAN7jxdbya8KM2xPO/QjTxz6TO8zzMJPOWcD73NMNq7pJvpPI108z07AqI84HKCOgeCAr0ecvs8HhBRvdBA0bwgshk8QfkZvfj9Kz2lIAE9HUexvKe2krxgDyi984Q/vYHARjzgEHA8eA7MO3yw2Dt6d5W8c/z8O/xfR73775S6h7YfPe03ET06X328HRJtvIg6JD2FwVY9KCw+vSr2aLxa4Lk7e6AQPZCQ2rypipE8FKwqvBkAkD3wuD08m3yxuwg9T7zCv/I8B1KMPIMSDb3nq6k7jrsqvZigxbw9RSW9YB4pvVGNtLys6vy8bV9uPAWMuTyABgy8RZwPveppuzy2Qn+9KtFzvXR6qDxC5JY8p3blPGaHALxIJiG9DraIvGLngDy4L8i8lky4vNmZMb0/HBW9tBTFPGdSSjzj1BS9es0KvYW9lbzjSNg8G7EVvfZx0rs1VGK9xSwmvR62OTznn9I8xPDSvKa4g7xH9bk8rYZWvNkhd7xDlHw8IM7kO4nzAz1gidE8BvuYvOlevLxF5ky7wrksvRz9+rwYXeY8xC9JvXYoTz1KGBQ89AOPu741dTzRtYQ84HYQPQC+AL2oram7FCAOvK4Qhj2v0cw8SbXNvEMvp7qgU2a8/K2EuwU6nDwtno09MZFVvXeaAj3suJc8hRS3vPkqu7uMbB687RZru5EUMD2hWhm9sB0gPeT6RLwMKVs9ZNRBPN1LOD1KR8o8WC0BPcr4GDpheqm87VnuPLdMpjyLJIw9e4xUvc2uCrvmiyc9ILMevTsxAbyLUYA9GlIqPdUE4byWkis9jbMiPUNIwDyTLWA8o93XOyCw07yMewi8EzABPafZlTsM9XU9RwUSvK2hlb0fWzO8ivHzO4/KLTwSU5c6D6TRvPluND2zg6q8yQeoPEA1G7xkxRa9740qPXoQnL0EKNi84dZHPHBgPLxwSbI8VIJ2u7A3a7xyYoM9BU3wuyL7srtPEgi9bKa9vAMQmjwCGoU8tWQguvSRsbw7fKM8rAdUvSmRuD18BQa8Md3UvDZiwT3oy+u82/fJvENlWz1yMdM8cH0APr37jDpmeek8+sAoPU+6Nz3WMLA9t/kVu2nN/DzDcva64q83vgLkLL3wZJE5l4CZPFDih7zBkQo9GRQaPoT1Frp/gFI9aYxqPcXMJj0+uvO8evLyvKvLljyOOjq8ND+oPcvhMr2MdZ49VlbqPQVnEj4oCqE6enSyPT0IejxIRkY9VumbuxvmGj5aMe67bhyQvAlphD1SDZM7RJDhPRNjij2a1Q49+hkgPQgVwD3Ogjk8vovCPV+k2T3E/7s84J+9va7wlTyODIo9RWviuwVXCT002ek94HmoPXngsj2c/zU6ISlYPcWXlrycqRU8WF5APVYHKjz7J+q8rnbjPEC13TtmLEY862YpPWLitD0SEZg9S60EPcOEdD04Vbc8kfMTPGrS+DsH4ia8J6hhvI3gRTrbg+q8DrEavR/bHz2foOu71sI8uvHAhLvqETg6L5syOnEKADvP0sW81A3lPNYWqrybVv48r8hrvbFwAr0I0/M8LKORu/3opLzEZzg8ZHkAvfIiFztYGYi9LlhevLi0n7y2nYQ84egTPX0D0rz5s0U9xNhMvIS7e72UNZK9hhs9PdDoobxxSJq7sM23vCk2Br1XfC89O1LlunLPZj2JpL+724aQvTGHzzwbydW7jQ7puyiWQD3gdQG83zcJPVEGHbmAPrC8eqCHPFZXjbxVbhc9sevuPBj/zDrU7bo8n0GKPB94B7xwchA9sTxuvFsGyTyaT6m8Qs2yPKWiTDw5FYu8rUlTvE4hcLwSLrs8OdmavAkfWTwb2zs9PQ3rOy0FRL0PxS08hBYgPdRPBrxo5Qg95d7ZPEVkUjyqYBK6SSYSvMTQ87s7fQw7Nx2kPIMdqTxjMg+8d+cdO481nDzU0Sm9G5tzvPSEwbyNx7y7mW0BvIck8bulTtO845eoPNuwVzw3yEi9KRAMO73dB73s41I9Lwhhu0wx/bqmLkU7xx5su9T1q7lgHEA9+zDuO5w+0TyXjgw9UWfrvPCmUT2MV608c3jvPG7nz7xWL808beZTPPg/f7yfXI09Vb2PPG9s2bvpvNA75z3kPEYsDT17jpM8FOUXPRX9Nj0MYBW95T9lvJoj4rymh2U79MAzPQtcpTzfH/y8VpAGvCfWAD03WrG8H88WuyJ5Hzz2km+9NVvCPMcVMjzXopA8ntjqvN41zbw1w4288/wEPN3nOTrCFIU7qLFYPYNhIj3VcKi8hrCbvA29Uz2p9xG8quMrPXLlRj3Lmo+8WEH1u3pd8LpF79i8KHbuvEhXPbzXwNk8FjVQvF+Lw7ucJFS8hD8lvXD0Kz0ndI+96MO0vMwbMzzZwj69uQ6PPAyOAz1QBOO8MT1aO+9fCb0ekGg8XVpUO2Uf5zuiQBc9qTVcPHX+Dj3KpVk8T4sRvdLlCDyM0hI8HcYvvS2KDj13l2m7im4+PFiS17zRLvQ4PyROOxfeFrxwoD87xfyNvbI3Ej3Y5CC9ROeEvaxY57zYhMi8VEOKPJ3z27wK7RQ8rPTsvMWchD3hf2s8EiJyPYZh87ztQJA8j5H+vBlukjwVPIg8o41GvaOKCb1qOw299bY2vWydr7ycA+i81aIvvbTPXjsf1Ik88bYfvf9LhbwX6y46ZRzWu03UqLyPbso83WDTPHw1qjziZ8C71px1PUBfVz3prT+8MSxVu7FyEz3ErsG8zmJJPAuw4DoBL6q8JjrZuz3YP70f8oK80/RzvYQd/D3bNDo9NSEYPfQi+zwCSCo9KWEdPW21+zxSQOi9OnTjPAhFVjwbqIG8Yl/ivJaL7byA+bA8G4ALPW/137yaH1c9BbsRPkjKOLxMfGG87KoHu6MatjxbkTq8FxnevfJneTwbxWi95qnXOxvPTj3uAPU7hej4PXRs6DwiYbM8TyUQPd4qa73Q9gE9zxk/PQ7+Fz7f03w9Hr0lPdbVJbxMwp+8JRssvD6ylj0ecyQ8HpTZugCYOr2G9TQ9qJwVPTvFIT3qs108gDFoPR3BDz0lXHQ9MF+mPTgCMj2IONk8AVxzu2W8cbsgByY9WvbevOYefrzWKD09lwGmPb7Xlj01tb+9lxsZPN5jXb0czqM7j6DXvJTwTDutpG49fCslvZocHTydt5I7jEZRvUmIgT2bRAw99pOvvNAIWbsO9ts9HJhBvEQ5Xb0Qx+S8qjI0vGDwPLwOCBu7OqcAvcoWhTwIyW28tzQnvT9wyLxEEj28y47QPEQnbjxOJCa8NecaOhSA0zvBhHo9icmXvOGSZTweg7I8/zjqvG0DujtDqaA75upmvDR9izwow/w85+EKPaOPvLslqLo7kISvPXWdB71OG9o7OgknPQL8EjscNqE8c8GpO7t0ljwb/oE9e6fZuy4owju41Us6o8oovLyPCTs1Bwi9Zwm0PHAyUT3PvxA95sYcPYHx7Lzbvzo9Rf6yvHmj0Lq0vqE9iOT5vOWO3TzCXBY8cmiIu35Y2Ly6jEy7nNVpvNZuAD0e1VI9P8VMvQ43CLzSiDA7lvyDvBr7G706g6E8UxiGu5gWRr2K1Hi8qcC+PFU5FL38++K8IQZBPdhLDT3/VAG9dmH8vBSncTweoAq9EufOOq2eKrx3GeQ8S5uGvWhSh72rrBa93QkYPSXp9zv251G9b4WoPHhvBT3wRsa4ePoZO30bVzyOnhQ9vNmVO4sDgzykpb260Gg7vO6OtrzrlR08cQ39uy6wkbsuIOM8TTTwPE63LD0b4Ty9I/OsPE1egrxRosa8qWzRvDnbFD2xdMs8cC+wvPbIC70Q89c5huNhvE/tSz3sjzO9PNpgvfBq+7vE4qg5XV6CO0MpuTyAxX49rkQovMDIhbzXLFi9CEfvO9K70TyeAgC88BIRPZ41bjopJTo96L0jPGbnAb1HgZy8fHc8vUVzVb0efag8YLbVPMMjcD2ffDU71GAou0lHCL1WpPI8mhHLvL0nLbyeNqk8BfWJPKGZZb0+P7w8r3GMO3eOP7x+REy8+9dWPb6esj0rX2A96iUNvUDZoLxkDwk9Gn8UvW77Tb0Oh129nZFmPUTMAj0sp2Y8Z8rEO8B86jw81EK8oE+XPB9Vo7yaeAc9OJCPu4ZPWLxC3IU9/b8EPNmjfTxp0FC8yi2KvTauZTy6eBy9AvwEPYSQPr1fVIW9+fu+POfvPTyiIIQ8mosUvX6F2DzFvvu8E5xnvIyoQ7whgRE6TZTRPKrUm7wy8648aYsKPadAUr004jW9N+iHOjBRXzglILY8zVxtva0XsTyF/LY84WKlu0PzKb1rpC85k6eDvB2jizy6Yya7w2GzPPmwVLxTzUI9jdmLvRWTBL2morA8kdwuvdDctDyxghW9BDw3O3vP4Lx43Fi8hqmrO4fqTbslbTu8lkmEPZcXhTmdYO68nPfjPJGvyTzeRRY9SZ5bPe3Z5rytMQI9swgMPVZbNzdxAfE7r324vcgNjbx2tFs9SJFbveqmg7y7hg08UXONPOJ7SD2inVi9CiqoOsr2TD3QayG9gRCcurKwRT2d1l09TZaEPO+boL0EFiG+aUlAPRufF7yZqAC7x6nBPZVSlrvrQ8e8z+jvO3A/urtWPxi8HiD9PXY6vjw+euk7IqITvRlpL7xjM2k894cAvlZvET1KHc48fjPzvLxnbDx4S2w9yyoxPjmCCTvOrdw8wnQ+vG1Jk71kBi49u8jlPHKAzT3Uspg8NOVGOl6iZrxyqS48iluRPEYNxDugFcg8CZ1ZvQoHd73rRIs9xoYzPcux4zx3mCe7M5cdve/YAj1cJbw8oePTvH0dBz0nLHE8o7FYPL3p1ryrlBY9JhE4vRDrgDtZw7o85UcmPMXkeT0Izg09nNmfvJBrhz0wx/a8TA0aPEZMET3Gd3i9LFADPVYoRruTaDW6iqH7vFjrCT0+SLq8fl0YvaPBN7xbdwS92kFBPd5FI70Nfrm8lH8bvDel4DguucI8LRvJPHPcFLxGyDy8e7+JOtsFyjzcaas89s19vOgIfb1Pq4M9J9PpPKlsATyUVSc8yi+AvB4F9ry0ayO8jLHauz+pmbwFDjO9BqMZvPKxjTwPQHO8gMwsOpZzfr2EGsy7CTK6Om+pFr13hlS9L5njPGHu27ySCnA8V4pOvPvbxz2Qcpm8ICI5vfn/KbtkKCa8rcqcPDd+ZLze7EC8/MDjPPdQDz29Siu9Gwz/PGJAXzx7Ur08SvYaPcB0Rjyg6JA9WHiMOzqQkj1MAOA5C3qtuxkuJLzuWoa9w+QYPKn4Cr1wh2C9drqtPHYrVr0Xr2g8+1ynvNR6AD2cnYQ9yxoCPDk2Y7xAtO+8scuyvJYynTpUSH69mmmwPBng17vQLws9YZJ7uywXWzsTNLG8kZoDvNmfV73XvBs8VJ9bPYngnzvI0DM80LnEvDFYSj1DgLy8dD5JPZnBIjwR4iC9i5kYPXfl8TnfsK87cDxePPgiKbo7JTq8ISJlPPb0NrxCRGm6dNWXvA7GNr29gp68X2igvAQZcztxFSY93AUsvdv4rTuW5oe9BIQAvb87ebzBbYq90EZkvRhulzuC4Rg7srdfu/WFxbxRXYQ9AYOeu1Pf07zaPU49BPmWPCJTNryRjhI9nQKaO68Onjx00uY77r78vOqu7jydvJ07ghH4vOZ+u7xYyeo83I01vOSRtjpa26A8fE58O+KWO715O4I9xp3mPHX81Dz8ko89jPWIPNL2vjwDS0M9TeLFvR5Gzj1BJ1U9vnPAPJJ1fz0YnOg8a1envC2lFD2OOJc80DtLPEkmZz1wESc9yr+HPP3/qrwcjkk8lTmzPLjyV72pEhG8gc4NvIZ+g7zFZas8/gLxPNpX3j0rTjY9wWL7PG6kgD2/D3Y8ZuGPPGF5dj1YVb49MfdKO+tqcDzpQhu8k5NMu9KFMb13dSg9JRwsutRzUDtNnPe6u+3/POssLTwdluc83MsZvVkldr2P+ui8mF9kPX+cnrwj1UY9U4U1PbYAYbxTsIc9rtHBPY5T6DzylWM98AJlPWZbwjxdpWE9+J5YvJi7H716WBy9aE2OPY/Dg7yuKBC6Vvo0vO8pHTzgWv26qMaMu8LKBL1NeLe7qFYWPP3axDst8Z899/IjPb6yYT1EdHU8Tz4Ou0fvIL3alg46BcKCvehXC7wfL0o9rWwqPDXqDD2CfTK8Nbgmvd6oYbzX7zi8orQWPcNbdT1co7C8ppYlvOKpcbs6LiC8PfsVvRyEZTvx1D08Uq9JPK0yEb3ZWC67KatSvTrU5jxfLvS8RNXzu1FRQTwLr4i8n379vOwS4rzwwUg9NroLPJe6EDxYTqo9LpqjPL8djzxEU8g69GUuPY4coTzEv248Eia/u//DLTzh2hI9FMDFvfBzP7vluT287eADvNj9ab2cprs8ytWyPNBXp7pSFCu8f4hFva6ZK7x3TV29E/t/vcW167uGoF46tTe/PIxX1buoQpc9PScVPZeym7ym58a8ZQdVPJ0svzvdVDC84HmWvNdzgD1F0xc7A1wVvK7pBDxuL2G8hJ2YPeIcET1N+Rk9ACi6vduH+jzDCBE9YpOkPdWrtDy8tU69c0mZPNTjtbvQyvm8/3GPvBd3Mz0+VW89JPkRPWg5A7xg2Zw9okILvfvIorpfDy29DmEmPbppbTwuACE9thVEPIzoiDtQNg08WiZhvQp4RT14WUs9Pj8JvMH/XDzI2Gs8R+NFPec+aDwpDiQ7Be5lvOKhM71POYi8W55fO1bzzbt6QWk7s9vBPNeFazwa/xw8/zWsPDYw4zug5d458Sd9PMqzTr03lB89fL0YvaEh2TyGA+s6V/YNPfzhIjt6Rdy8EdYJPbRS5TsdrKQ70DeAO6siAT3MPdU84RL7OwhaOL2JkS28uYKGOwvoYj1jg1Y8xFKcuujtGz30VAm71lZFOq/azjtftjG9tVH4PDkvYDytmuC7Q0YGve/GAzwCwDI9Mh2QvC5l97xel2k86647vbkOhb1JX0K8nNqbvPnl2bsEVXO81fA3PNp7obs4OYW8gVBHvGBAqTzgRPQ8dBTvPCR3tjzUbMi9ItvuvAlc9LsI9Og7b40/vUXQND2OAiQ8lzmNvPIO2zvtDA28d0SvvC06jDz6+068L28nvdDTkLx2efm6sqf9vM9PIT2YzQC9cb9cPYHr6jwQOdi8feKyO8cwFj1igXy7d9oKvVOAljsL6nk9ivUxvcQcmDxOjBI7lETPul9iH7yDJfm7oawHPViGmDxxoOS8ePtGPfofGL1SLLM8iCjjO4AkGT1/A1E8QQYJPRpWmDpmJwA9mupLPEJgiD2ijZm8C30bPZO3gzzw8PM7zBNzvOVRfzwxMyy9TEIfveXXwDwBGza93485PXmWxbtI7h48UqiSO6QMczw1Rcm7yv0PvMChybrGJAo9rHwUPZDHJT34nFg8nu51uz0dRb0NnrA89DXhPATgILxM/F09hbsnPSe0pzsauYg9mWB4O2HMS73Wt0K8in8WPbmlJz1xW8G8oAYyvDKlqbw8gGQ7RRUmPGEkCD1u6/c8M0XtO8z4X73/hrY7ulO6O0GDRz1jRI+96OpBux7osj2eCCQ9dcvmvLEnbDzXSQg9nBksvFUR9L0kSJG7twoKvUmQRD1p7M+8IAyCPSUmAT0Jcx28kB/OvKyYJzxZd5U8IGVyPaANhTvD2kE9h6PUvMRUPTz1OcQ9qPlevbnDoz38yWo9djtCvVDZFb0GSAe86E8aPeNDQzzvwqU8oL/APOVnvzvCT7Y8QwSPPMWJEz3Qew87y8mcPYiu/LmLllk7wY+xPNlxgTz/DWq9JckRPNWlHL3+bbm8h8slPX8Cp7zcL7Y8zg52u4eRfT1QK5s8HDPKuzuk17yYkCa8kJE1PBUbBTvWcv88E8zoO+hmwjt87kA841PxuovxMDzN/NA8uPLQPDNDa7zSHVG973q2vNKWKjxn6pS9xyFKvBMwfDwG9nW8+qYBvbUzXz3dzTE9e0nBu4ANKj1ACyc9v2gDvcNdqD1Xote8qYDIu9/Q/ryvfYU7e3savTG3xDpG+Qs9EY0EPBwazbvStkQ9u9TOvJVJ+zxuCfS7/lUEPBXiJTsfXrE73mwmuACRs7xBdn68d6BxPAbr5bpK5gi9fX+hvIWVnrxfVYO57GncOyq8hTtyxZW8NNnwOmjnIr3qk6699HrWuU03Rr216t68SGgPvX6/ozwVKBC9/OYYPAaBX7x52xO9w5U9ve/dcTwYLEw86BvFPFJZZD3KZhI82YEWPOeXQ7tH1Hw7g1QhvBOZ1rw2cnc9I25ivSKxBTy/C2I89smjOzKL6LwdKa67QidcvF2HAr0h5Iq67XZDvCKJhbwTu6k8TVoBvfb6Wjyu/JS8p4RTPBgzDTsJPe47NmnwvM9cvryGc9K8tQupO1POtjxYFQQ9BqN3vPtXHjvEGEe99mSIvcIS1rzLFqW8AXQ/vR4qW714m4A8jYLHvJBxT73fnI09Y0CcO0WhIrxdiqI8UxS+vEKUQD3fxj6992sivR6fmbtSgsC87zoqPaUfR73hzbi8tq/RO9yxgzz5NO880hUbPMtIhT1oU3a8dxqPOydlyjy6GSq8TT4fvD2Ac7wG96W8t3sOvU6DkLypH0K9ZnXjPTScR71jH3g9NewQPpL4wDzg3va7sOmZvFeCTT1WibI92Nl8PJ0Du7yTR0c9ZLSIvCKwhTydckK91P04O99iXjzo5rq94y9yvElRtTzWqG67FKgfPYnwlr3MWwU+41HSPD4gIL19Fg69SeZVPWvtCL08iMa9gFckPQLiOrxI57Y9kDVQvbagVD3KiPs9rfbfPR2Xpr1gxQM+IVi5PBAD2LvGr0Q9/klFPK7NXj3d8qe8vHGiPZdanbw6P449mJuXPSWwCj1iJ/48KG7JPTcbk7t9ecQ9hjjTPW6bH7wjdvK8s5xxPHch5j1CKrY8agE9OzUoPT1oHcs9OUM0PcIgTDsjodK8ioVdvUlUBjs2lvC7NkQpPeFoyD2X8DQ89vBAPdWrRD2i4O+735IxPVPKAD5RVdy7zVQ+PRZPHDx/ULm7q32hvF1ZqTyYtRI9VRRSvMCqL7150TG5Cso8vb4wqrxTmw89/HmKPTZkHDyWJgm9+v+wPK7MjL3mq7e8LmQzPbVzqDzhry+9w0dSvb5dwzzwV0u7PfCevFElLjzhMZq8zN5xvfzztzwYQay8wIsBvU7xKb3WCxc74ZnSvM7gijypZFS88oL6PGt/WLzJoq283Bt5vaoGEr04YqI8wFm3PdHhIb1xBQa9PfbeO6MQTjz1OLO8aw4zOtVhS71C6yy8uqPOPPb/QD0H/vm7L+cZvC78DDz2Ev88eglSPOARxbxlbRM8tTbePB29u7zyCSq99DxePFDd/TuvUdg8rr4SukASybyJToa8jBYGvYXdCb10P5a8GNCVvPPy5zyqSRy9VspDuwm9nLxf9x89DxPAOyvthry8eJw8TEn+ORSagLyPXyY996ChPF22Pz18g/A8pJmxPGgXJDu6ERC9WHODPI7URTr+Hpk8dI+uu+28zryVqQ+9ssWfPHhOGD1YpiK8XDFIPDOSIz0MrNa8UhZrvNMNDr1E9wM98/zVOxuGdrzXtFS9sAQBvLU36Tx/51C8Q6RvvLtckjxKhhu9NLCwOfUaiDz+Isi8gzrUvNDwyjth6Ie7YXcGvJ/aoztZ7bI7NGTrvP4grLzyPUg8syQEPamMID11z9e8XeUAPc3yrzw65QK7q1RcPCWCwTxEllU9hfkEvYv0iTzyQ6q7Aovru2uaBz1bI788YKn/vEgNkjsaI7072igwvVMQMz3cA1K7xPJ8OyqfEzxBY/w9RSUxvESHPbwR0k89B8Z4vBSOiLw3IS+9knH/PNb9+TuDRlY8mx0gvcxVobsBZsa8lUDFvETB/Dw+tDY77/jZPVkPvLzBd328F0v/vMBVJD191Ba9e4usvK9GLT1eCaS7jkTMPGd+R73SEyu8ExcIvUWRHbzMwtI7RyQNvDCi8jz/e2k8KkQ8vK+OeLzC4TW9r17Ouys+rz30SI28hdbaPJQqcLktRbw8BNpNPJsiETyxpFq9k+pkumyzWD2P+gK8hZeSPIR9yLt56SC9eNZCPBQ28jybcxa6rxgmvGUQyjxK/pW81wgcPATD3bu/p5C9kdqjuwnulryNgsy8M7RPPGbiSrwh13k8lr8CPUaz57qfKje9wjqVvM8SMD3W1Z27b4rJvOwZW7sxnWk8lyHmO25/lzyUrM28+P8PvPHoBLx6H6i6GY+AvT83+ru6fSW9ZE4mPViAOj3uq0k9As2/PB+1dbwvPuQ8wSHWuxPQjzy269+8bVWTvBi0WDwIBFU9h0upumbDhz2JRKY9Lu0dvem0r7qLluu8XkOXPBEDhrxFziO7pTYpPeQE+DyHUuw7rzLWuX19Lb10qx89Qn6HPL1aprmbBIU8zfkZvUD72Dz+QFc9moalO5uTLb2QNng95UInvIh7tr0GVuK7PyWYPAC5Mzwmn/U8oKuePPGvozso9my9AkwDva8MiDuJlCY9M3X8vKMBmLxJGfU8P26VvTrTML2vnUg8MvdQPUd/QbxMsV29oSHtOS/jKL0X4pQ88crsO2XW9Dti55g8K8npvA+a5jzudFA9tczgPEwWMz2dDIe8IxgtPYqSPzxc/ka8PJ5ZPDLeg7weSIm8U3ZDPKYNTz01PiC8SMOTuiXi1Lzwfb48bKZaPZNFwjy8YGE8Hu2CvDr877zu90y7kzIkve04+7xLpOc8qCvkvFYFaT3sKS+9KysHPT/1i7yNXYE7NuPNvC/0iDuGRqO7I11hvNWPczyMPDY9oraSvCp41DywNg47LzCiusi8hD0Ry4S9xoiovN/EXb2zRx68PXPqu6c15z2j+CI8+BtZPdOeHD01Ily8JptjPAi+ST1mUJ07ev2/O1kZbzxgjji9paHIvM8hHjwu8IE8CpzivFFYI7ycvV07M3+fu+vOpTyvvRK7JixWPPzbLb1Z4AG9GaZcvaduS72pS/k7M2ykvMQh2bwksJY8cbWqvH7t2ryRH6a8FSOjOjmYIj79JoK92RKOurJt/LswXA09zXM9vNyZDb6KKhg9fiUJvZssTbtodCm9prwLvWxPfj0NMc48NlzIPMue07xRLkc8LtRaurfGRjwG0gQ97MQWPTNUA71NNqq71fhrO0Hn/bqkVtu8V/9OPeUIbryuuSY8M6HgPIkguTwQ2WC9xkhvPaRdB7xNENW8q651Ok6LmT3MnMI8uN4ZvWw2cLwoySM9ShwIvULqzLuGdAC9cvWVPWjrVTwamUM9aMusvCaQy7zU0e08Gp6QPL20Vr0HwZQ8bCeLPKgCn7zJCZE7QbimO1nlerzP0qK8ysnxvCMmW7wz1g+9a4orOaBbOr34PKY6959ku1NdAr0rFcg8901oPaGrHT2Suiq9EVUXPbXwtDvIHSi7gnaZvCKOnboLTCU9vSB5PAuJWrw2rqu8bp5bvAXFhjzfel89UicFvUtkjbrUkEy8Yf6/vAxZMTwSDnw8rP0wveVyAr0saA09JN4JPHHZgDznmIK8EzJKvOIPYTymb3y8v2ULvX7Dhbp5RJU83pQBvX8L+TyUgKI8RLrfvA8UlbhfKCG7AOGRPMq3lzy7wyK9LUEAvYQt8jwQKhk7vlM6PIxCIzxnLzY9sBw3vSua+zygh8m8MquoPFjjHT09YCy9sqypPHnlG7yqDh68sJNnutGmAL0RXOi82TqmPI9d1zxoYYK8HY81vU/pjD0cZPs8LJMKPCz0/Lz845W8ijfKO6hC+rwqzkY9+9M+O8pwSzwvGQG9LqfkvAkBubx5seo76h/uuwCj/btTJwg8sv24O6q2Lj0iCKO7zNz9vA+lu7tzsjQ9iwVUvJaAETsf5D28YGozPC581ztHj8y8vRL+u7iG2zy9bvg8JDrePIgYwzznhzG8wjhCvL5z1jzbKRi9V3Vqu7JeXr3xpD+8gsqyvMiqFb0A3oM8ttK5vLu6Qby9sgy8Wuy5vLC2Jz28v368CPGdO6q8Ib3ipHS8UkwsvCdEJLwyFZW8D85UO2soOD0y8p+7Z0amu9pZTLxeD5c9PcA+Pe8QfTzFG6I8MTuzvLv0srvM4Ks7XhsoO9pu1ryk48O8Y9YXPdw4BzxsA4G9ZdpBPKoQJj1XSKO8zPnIO7JR1b32nFE95zIKva2vGr0bnwO8WFWQPTpvf7zTVBq9KOWaPLy9vjsPjbE94aAcvWjXQ73RBSe80kv5O3IrHTy4Rhk7NPwxvUOzwLzPApC7E2T8PIKFSTzjGtE8BkXKvINdzTytwic9YXeBPeIOJjxjn4g9sSNAPHiHObz5ZyK8KztavB4C3rypg6C8v+ULPL9pZ7zNrpc8Pl6LvH+d0DvKb1o9NLHgPC/dmztTf3G644+lPIW+hzzUB9i7fA9JPb2XOT2qRwc9gP7Vu5PL5Lxo1GC8zJn7u4smKz0+gJs8nL8kPEB/Mz21dqi8UWL5PEC30jwKrSO9s1bvOyq6P7x+gN+8yzdgvTujQL3kS2Q83GHwO0FbuDy9zQy90vd9u8xNpbuDiz29krFLvYOyRTzFo2I7k8bnvNSGfLt1Wpg8pd1YPWLh3Ly2VI0842x7PaI2jDrfDi0973KdvY3bKj0hT5q63oZlvYiTtDzlkfU8nPENPUbbDD1muOW6Z1a7vItxbLx4xfi6MTw1PO82dry+SRE6hRbMPH9mDjwJuI490y2APQvrDb1TEYC8RLshvd/yD72l6ng8uSYJveJCy7wajBC8b+m5PFinLLwlIDK8iFPaPFHuWjzlNyg8Ko7dPOVZAb1ONLM77CmgvJCc8Dzf78Q8mqQBvSEpLz2ltA69ss4LPeiOtDs/5eu8SaYKvbsKMLyqRX67DueyvAZ4mTyUUjW9UvjpOe8Q0DqvelG9fvX4OyMWD71cNpi973qTvGsQBrxs09Y8wdl5vCeJLj3sTys9elz7PCGuKT2mcDM8wI6DvNIOmzxyTu08uqfwOwGcwrur1De9uU+cPNeVGzwgsxy9W8GSO5Kcpzyg1Zq7BljKPI6VxDxjliy9adUgvFIKXDzyudY8Di8nPe4wbL3b/Du7W6GpPEzCET0bLEw99XrgvNHnU7yngOy8oLTaPOnLJL0LXw89jgvbPDeUXTyClIW96N+rvKVMrjxSsC+9mVoDvPxQg7uTgNA881b0O0Fx7Dt8z2S8DbdHuj2aoLuXL6k8ZoDMu69S8zyT7VG9SOgNPTjTw7vzIQU9mQTKOoPRxzy1gzE9kkSOvMDmujrHI8S7jDCrO8WCSL1RicW7368IvAXIxrwpcdy7fTc/vQ7JJT1aQUk8OMVgPWAr3LxIrBG9KPPxO/eHTr2PMLs79tGyvOCzMrxn59U7TXy4ObXoXT2OI5E8bAIhvVma5TxZzia9547IOvesG71cltG8hTcbPZTjj7xVGaW8EjqRvC1TKbxelyo9yZoTvVKeGr3KqoM8vzlGvYgSRLzJtwQ9w5yRukAFfLxV/7W8AETovKhCmbxQFDk7uvMRPUFX4DzhnpO8GQy8vMk2njy2w2G96flqvM7xM7whcgy97//8vB2jETwxsk69qQLqvKWfqbzU0Wk6O8csvf+8+jwK8C+8sAcZvA4WS7xiNbG8v/z7vLAfBD0TYIs7TR6lu7mS4jynkru8RHSJPCxvoLppT+e8bWWoPOQrPb0epo08pa/mvAIhJTxA7R49UGdxPJHzorzQzUG7JPVUvOfUFr2B6A69DFhvuhGrXzwLxF69iomQuxV3TzykAW06LfcCvZXj5jxO7hy9hM2IPO6LNz31b4C9gQKnO8mg3DuGi4c7dXrOvA4BQby+bTO91vmnOgJpWDwtcba8oGb1vEgsiLxdG0G7udVxukHYvbvrdj26DHUpvYVfqr08K3w8vxwgPYpmNr2grre8RxDFO6+8zjziGoU8Im0OPWHRkbtGtRg8NFYXPCJsf7xvCQU9gCZ9PKET1Dztg2u8LHvgPPTfCr1/yg08vWOjvXSQBb3tU5k8iZ+EvOfCDDvBWE+9PiQuPaFcbjxernS78lsXPJAR2jvaEx492j1ZOwc/Pb3M5iu8pSUOPXvvYDwzT3u8mXt0PIf34DkK/nM8hv5KvRxh8Lwor4c82hscvPgj8DstL189yc5GvHw4hjt1Z568LKyuvHDbqbtVyzq9EoaEvcvEFz1RgMW78HX1PLPQHjrl+7Q64JCIPJkZlDz+uRy9uNkEPa3IAL3qPEM7UVeTPWXeI7oh+Ts9qZpXvFkcdjyObcC69/gXPCGT5by8uPS81iLhO2+6R72t4eK8ktyBPDXtq7y4gO28jhIRvULLsTqUFV+8MWe8OhifCryB/1E9ruOAvIDydr2iJ/E5A5Y8u3Do1Trykky9b1/3PHn1fLucf4m7ocFJvTq3MjwAE5+7j9QVPXRPd7zqBiC9QqJWOmTR8rw5yxY8sKgNvWrW27sTpRy8mviAu6Ydk7wOO3c7kiCZu9OworwVUB09ikiVvMo5jL0hbJu7FrSrPYkE8jyL12084V8pPM62NbwI8xy97ZbHPHId9Dyp2KI8kysaPLWQX712U3W7DfOkO68+KbuYTiE8YM34vE01VT3vepE8KUEYvEB0kb2lZQg8nsaMvYuoLrwEx8Y8a9mHPErnejuTIBm9XlQIOhyA0TziqSq8BgASvKuodD1EFsQ8A2jkvAN3dr0+EZ88WpGyvL96JTzH6YA9MDUCPXyQRT2jNU496QdbPc08jztibck8/mj4PLU1rzws3QQ8UTDGvEaqHru+r7y7uvREPcvGRrwhlIA9VeBwPYOR5rxM82Y9CtdlvCoDFz0RUkk8xaJzu7NPijyCPJa8XWyIPKe4hDwlgSa7/cqAPGAs57ws+Ak94zIrvPAKpjxkuOQ8l/HGPMollLz+ZK09j0YMvN+zFTsQK8G8ITcfPeaEfLzZh9g8laDsvCt55Dud5ku8iZvKPBqaJbz8R9i8qE02PPFtEr06he28QWilPHU6Yb06u6M88Y1VvEyb4rzkLrA78Z+GPIm3lLyKX9W7t2OuPHuJozybmjy7/8e+vNOA57zixZW8gzKTPPpKdzz8/PA78rIcPRyIH7ztP0S8+kpGvE5RWT1rmHO9UdzpO9qRPTzyrjg6Xm6FPR7YAz2K+ao8azTYvATwVzxEQzu86b/GOYRWnjv292y80g2MPKW1OT1h5+k8HrewOyCqYr3JI/Y86DH0PJaIx7s2/Ga82aKTPJPmv7zF3LM8wBH+vKcS2by4GsG3IkwqvfQJzLkeA288774ZvW/H0jwK4IS8pYF3PObEuTuoXli8niF3vHBaRr0bTKO872a0vAFxPD1jseg8hSwfvcm1tjzC7sQ7eF0zvONgUTwSpbQ8fgyFvO8HArwlX5I7BITkvJM/pDtidyC7aAGevJAgw7xYOgo8zH7IPAgUFjxRA8a8UmKrPFm/mDtxYIc8onQFPcut0LzmEIS7q0yKvIjpybzUIGY9kDnXPI1+S72EuUI8cXeAvFyrAz2NQRU7uYeiu9QEgTtNby88ki5OOreoy7vbk4C71xtqPHbZAb3Zws64Cz9fu3TsX7x+2Kg8JlQUvRppKLzF+8O8t9Z5PK5pV7xBm6860EgwPBB3N72oM088Eu6rvK2H6rtoDFC7ChQmPVJMqTyxmEo9+vaDPKUKV7xl+2a8LPGVPHB+fjyyCSI9mV2EvF3I+ztthxk8Q5MFO4dJkbywEI69k9tpvHWh8TzfESg8BnJ9vW8nEjl/+lO9H/tbPfzVrjvkwfe8MBDDPPpRqrxjOI88TMk8O7trCb0M5Ls8Wo0WvX3TGT2P4JE89MszvWi0I70WXXI9PN6aPQI1Fr3YX3I9Iz+EO0NE4LvdoLu7G7x6O5k3JD2M2Ik7obl6vSRLbD3qoxo90EOzvOuWQrvjDK683OYQPJrojjxOFp08pQuyu8iqt7yUZMI8yNSVO1aLnT2BQLm80p23PBW2aDxjdhO8qD1VPZDZYjsHJc286nASvLuG6Tzlkwy9iDwePTy+wjy9EgK8iO0cPa0CYT0AM4w8T6/APMt0jz1/Biw9JOe7vLA7arvu7MW7mOc8vL4pLL2Yfs88PRsaO23WNTvQESI9ChiCvOW60bqVTvw7oTVHvOueTLv5k7A8Ibp+ueVmGT1LFq28YRO6OwOJJL3bI1q71gaivPIjHT2Vyqs8D/5qPNL9VD0HqCY9A+qlPBpon7wsDSe9ROBbulpkJLwYQ0u64lIGvMZGP725rUg9ip7nvMt7m7wn5YM8zBnOva7+Vj2mONk88s8QvJ1v9LwB/0W88tBHvUbDJT3ZTWM73MGqvNPRBzynF4U8SWUuPRfOE739FJa8iCNMvTNzvrvaUqg7z+CFPcXeFbthSBi864KrvMdbbj3KYDW9d4auPODKlTzn7/G8sA5KvIjxNT2+IcA9IsAKvA3trzzs8Us9D+ynvA/HCryKy8i8GreJuwn4F7tTr+C8ubl4vHA0Hr0mKN+8RiG+vFpQqjwQAYS7p8mlvOfrAT0BdeE84iWwvIxQkrw8ItI8WRTLPPJIw7zEmxi7gNtJPCoCUD1auyi8xn/OPFIwSjx8Bey8/Lf2PKvS1DxHZRq9Zr+BPWZeA71AmuG8rKuzu8hSuzyBXAg9AScjPJPBGD0QIHM8nVYvPVN5pT3pzLU7R1WXvYPbVLzAKv28n3stO+75NzvwgBC90ukHvS3m+LvWebm7TK+ZvRrQ5TwVQ2o6EQSXuThiDDzOSPK8K4/Augbf9TyZNv88NAhbPM12BLyH+8K8A74cPc8xeTy/Lkm8/yKBvVogz7wLzWW9xYkUPXmybDwNzLG8wj4EvMm9uT3Z1gE9m9AgvWGyertkTWs7X4RcvVsCpztV45A9w8BFPSbK4jp1DRO87sq2O5tGBT3s2y+9ZqCzvaqbYj0rCgc8jbBBPScTRTxBTjI9p7apPHQ6hTzZaj09LTf0PCt6PrzM4908wKxWvWnoI71J1H08o7dCPeXhCj3u4xe9i7MTPZKUJzyl1Zm8Ny9gvX1VAj1PmhE9DaesPPRvQL2EUzW9rnv2PDn8PD1roAY8wHk/PC0Wsjx/E4G8ziQPvJBTg7wvIAY81jRRu2s3ID183K88NnHGvNjJcj21B7+8zhpcPMB1Kz1SVUc976qAvVmuJD3gShU95R0wPWA0iL3CvqW8IKBBu8KJWrxFZj49UC+evD3sMT3TG4k8yaEuvRHS6LzYkRa8w2CdO5AnIj3xZES7mznfPIpMQb0zRru9v54lvBdQYTy/hDG8Dhz4vBKUTzw3hW09qk1Lu4hssrxmxs+8m5VxPYKFnrqfcpY8GOoVPRldBD1LlOK8O/TqPJ5hzzyWeHA8dR/4PEHwibyQJBK7q/OAvNRcujytgKC8t1RBPPxuBr3X22+7KvadulqSYLsxpoI7V3bAOxrSF7zGZH69L9EHPZCCErv76tq6jVPLvLGQ9TyoWcu8IaKBPK9tGz3tQ1A9ufIUPZVDmDyHjWm9WZwePYIREj3gN848n8nHPAziGzt5WRs8myUKPd2jHz30fvG8LoXtPIkoADxKHbk7ODUWPBtHCT1rEyQ9yXrYPIR9HL2maAo9DFzSO4NnG70woxI9lrIfvc3FBz0yAFg98ZbUu0rf5DyQ3mQ8U0sAPd/OOL1tMAc9ptwRPGUW6Tzvwo47T/MVPWNMazxrVuw8+95NPdsuyTtmSfg8NfE/PLpXzTyyhHO8dU79PDicPD0LduU6UCgIPRKIXjz4rAK9Mgk6PHncIz13yly8bF1Uvdi1Sjz3aou84eh8PdYxozsnfpY6iacxvNhpkTwqfmm87nGkvPNTtTq/rbu8KJ4jPbfECL2HEZS6Kt6dvHZ0Ir1dDE09EH95vRfQMz0SFia9IxdzO7mqij0aXHy9ATAhvXSEIj2xlMk7bRp2vGSw8Tj84d+8FqaYO9tmOD19Cye8gtmoO51QFT1Yz3M97fqEvDVBIjyHxH28epGSvOVmL7wxOyA9aBlMvdlRa72IPRs8xE06PBeaFj2CCG68vsTYvYnwsj3Y7bo87kgXuxzxBzz5xXc9FSohuZ61Kbw6qBy9rORhPChXNj1xJmo9r9EPvDUczDxEic88FZpKPcD+fL0fVFc9cTm/O3E8fzo/+D477xVDvDeuLD0wiXG9TJKDPHlNKz0Ov3S9A1YOPThj8T36w+o9VfSVuyHptz2ivHK8afYMO/LBnrz4MNE8Dy64PNLlkzwnFRK95Iq7O09wLD0bO+k8TkdaPCWMR7yRb4o81cZqPDgkeTzwTGQ9l3CZu7/V1Lx14sY7KvITPQLbc7vABim8XfQoPWKg8TySrLw9aSjgPJmFiDugI+s8WosrPJj/2Lsccl87t5/APVduFj3BkBg9+hYausTSszw2Zuo9noZkPSSX7zyAGmY9xQrwPLKdPz0w0/g7rKl7PGJ3jrxmJZ89bX8fPBVchjtJJik9a/tZvOcIOzrlQLO858fEOpH7KrxvNIg8stg5uyyTh7yFlPy7MZEru2wTZryZ8OU8asqmPM6gpTuoFwq92saBPOyVFL1lLcs7ik0QOzZthbwGg768HoWevCaaCT64vuG7pPqpuwiTmz0FVoc81eMAPflXDr2KEO+9iAYxPpsu17kbkvi7uEKaPF3HEz1zA6+8X3RIPHBUOzxxNKY8NEwQPX3Lbryg3Ma80LeOvWGb3DzhzCq9r327u2zRaj2ZRZu7wMyxPHpiEjxmaqI8JFb+PK5nIbtiLyM9Yes5PVjbkb3f8Qc9hGyoPQNjqD3Sd9I8JZupPTRomz05xIC7bsGbPIxyArztFTm89SF5O6ShPzzz9GE7WeptPTdZHz0iGZ06GKONPIe3kT01TP08Jca1PfH+vT0hgFG9Yc1pvDwY3jxeoEM9qED9PJIghTzhm3U9RT+KPVUI0z3OSBe8V7QHvIkC3DzwFWo8LXgqPTrpOjyZEzo91qVCu0EEZbxXiSc8ctqQverOkD0T7Kw97K/lOgh0vjxonDk91QjoucUw7TzLqII93LuwPDpE4zxyQnU80xgDPHenDjwB5TI7CrkCPVSEOr0/reG73wmhPGPtv7x6BxK7UbucvPooXDy2n9E87BcuPdwjeTyQaqK8a1cDPN1NjDzZCCk9D7t4vadrOzygaFO9e4SuPN0TXjw2k3c8AJPWPGQIQjxgWJG8gVgyPIswED2bCSa7YGPROj0ZC72hiQs9pfNfvL7Sp7wc90S8lqjDvJvm0buP9Rg9E67APCFzKj3itDE9V6nLvHKPbjxvKDM96l+IPcjCIr0t2CO91aJoPHOQELxQ2uK8LlI/PBigsrx2hIO99YasONDRjTt3m5s8L5viPPNJwzvjoMW7XkmWvIpSPr0b2kG8+abvPEx9njy9k3M9EhJxu4iETr1Ig8c8w9X4PNJTBr26hjq9qOykO2M6rDyryQC9N6YUvAECsbyqEgi9LfAXvW/zljsHEiW8I3mYvHbTl70UXE89h8TYvJv0XLuWPwO9b7Q6PEfoLr3KP1E7NWqgu4Nr2zwCP/285WeUvPBCzbuSiHc9lhMrvfKaDzwVQJa8Y/UYPBOrnDzlMZE7xnoBPG5CCTzy1oa8bje/u5rzQL1CDSG8gaexvBWS5LviS688aT04PISjYTwjmgI9okGLvZNFTjzuQ+K5mI0nuylAGL2g34I8i5kHPUXt8jzSKRO7knuXPCDy2Tx1nVY9vaoQPVVGizusPj07Z2miOym42juHNWa8+1y2PGYFobyZuLq8N90oPI5fhbymsOC7HPJyvSNouzwKnF64eipnu5gNWzzK6sg7qSqjvGuNaz24rlG8kUvlPAYHVz2IuJC87yU2O24jv7zuAfc8WI0bvNqiAL3tuxo9++rXPKO1z7zGEgs9ndW5O+BWnz13bUk9XJCBvM+E+rv+Kc28nPd9O7DcuDrZDq08O4clO59OLL057r28qv8lPeSWBz1KhZa7Zwl9u/Iqnbt7+C86tbtEvbUV0jxpLJq8Q2eKO3wvlL3JINw7HAAdPagQg71+OzI9UNFdPE7pq7wM9jm9m28IPRkY9TtsM4s8Zaz+u6z8uryoTMw8IAXgvMiI0zwSE0S9SyrZvGJoKr1wwBk92IRNvYe9Bb2JEZs8qSzXO5C1gD0NNlg9eP+QPHgQojx4X1a93x7PvMpNGrxdAae77JYhvfHU2ryWE8e8f6X5PAn/RzxCHRy8ZqsBvNDUCDwVCKS89+v3u4xcSr1uXZ08NdvhPDsnKjyHWWA8YIsrPPzibz0kEL87/4sbvXeg9ry9L6c8PKL6PIwNtTw7VMU8jqauO7oyL73uGKe8JhZVvf/9NrxinyC9epYxO0x1orsErWW9Os6rPHllsjzIKiS96oqEOzEAqDx1Ewu89Z/IPDYKrTt8tvs8M4OpOwPXobtj7W08GCa3PGFH5Dse1le8+Xy8vDSfNLy9n4m8ixW4O9pGljvK9TW71p3RudNDlzvmoDc9o80MPWhqi7wzPUE8geUhvJ1WUruALPS7jj+XvBHEIr2DjZK9kUKvO+4cCj0HP9q8kuNnPOfHPry9o/g7jhbDvFXr67vxO3O70uyNvQrjujtvGpS7jiOUvYBZlTxRvsq6kqKuOx6BITw7cU+86BcCvfF4Xbw6JlW8nGeCPYgnWD0sgHK8U4RPvKDpDTw8goA8uD6qvOu887yS1GI9SRL1PGnFO727B1W98crKvM4RuDsNyXc89CAvvKOVQ73XabY7OLeIPNOGYbpiy3m8HyeCPNm8I7tjJAm9OGf2Okb7Hb3qv948uF1RPHv29LzdZq07CbYRPVTcgb0Qz6K70BJBPUApPb22hb27VxIuvd56PLtJhJG9UfJFvZMiiLygV007mngmPHXyPDy19gU9LPWfPCifqTxDYvK8SdWzu548vT3RQoY9TrS/PAxaqjzfNuY8dXDGPJLsZz1+dEO8MEcLPV5yZD1oM36917MfPPMsvrz3CZg8bq5ruyyTOLwTHWE8Ui2TvKutPjtI0Q291YYKvA9GK73w5TK9TSggveRToDzB8Va8J6VIvDYjCz13T589uXZNvVYSnzz5+q69GolCPMs3Trxh6NW9bNStOzMNJLxXwr89vmfKvOZsjz1si5M9Zq0+PCQoHr0VLrA9hrMgPAfLYDyfXiG79gOJvDwSRLxl+PC8MnPnvC5xzLyNn8w9SU+bPblbtTp58ak7MVQvPZWbMD0+5xg9eWdRPGGrTbx0pwY9eVjBPZ70RzzsGn69sR8+PWiD3DwH5oo8YCmLPZfalDoivSW9qZRzvXWUFrvqMhG94eT+O1rWt7w1uQQ6AjkWvWHqDLzcFU68cHRAPfsnnD2OwuG6VOgxvPfsgT3x5yM8YNiOPHw2jjyZwi498IjwPI5TnzxbObU8khLZvBfBm7zBvIK7vJcCO4VpeLnwfAo8XtcCN3J3XrxEMkq9TJHGPMWziTzfxt28AFNnPOziNDzQCLg6L51kvc8AF70ypJm8WclCPd7Z2LwasDa85lkLvfIafrwndq89er6AvV+Lr71sjJM9lgwxOwq/mrwrXec8PMwuvTtZvDsdH767c8YEPUft67ujiF+7DakjPbDlyLsSKrm8eeOuvOEolryKk4E8vNRWvX6C7zx5p029aEIUOi/o/Lz1sLy66voVPSyKET2m1l89tW+Nu52KyTzLmqU8kxiRPJWpHj2FSL07cxtOPaiF0z0MNPM977uoPMPXNT3Jxnc7njfJvClAu7vNAg49IOHGPN3nHb37NNg9xkvlupAL1T2iWLo9YJmDvQsqrLrt2dE9YoKAvSg1rj30Wwo9xF5yvLH2wTth18q842yYPZJwpbxiqey8GS2xPQrxLj7GSqI920CBPDPsGbs4ibi8HdriO08iNz1vfJ47KIRVPWaw2Du9q7M9LJksvd/cuDx5uZE9wv54PT11Eb2KKZ+60vraO1spBjvc5xi9QOYGvbzOgTwKtvU8fvqRvHbNs7z/6Lq8IjSWPeH9Xzzo00S7VNXuPFvuij0Fngs9/NIzvaQ3brvfdFi8lnU6vIkkGr0bylK8wesJvcCHFDzJ/2U5E6oyvW7GVr0uAH+8yMqWPJuCYDwWLU+7ecvNvUP6Zbzg9r+8W4E4vGz0E72xsWi8s4+tvLrApD1Dt648ZbvquzJELbtfbZy7DF+TO9dPW7znNuO6cD32PFdhxDzokAQ8Z0wgPQe2tTvTyPu8BEtcvbJEtby9yUq7iFUtPF/t/zxGYZe8q0jNvF8AwTw4KQw9G9Z6vNNXFTyHliQ9tH8ZPJ3ZNLvGe4C9itEmPYHrpDzPQD475CVbvDSFHr2Dq4m7eJaPu+LACT22Phq9u68sPToWmziKow49rP3pvP/3HzzRBhg9r+1sO4UyOL1bChy8EyOJPItEKb203Da9XW3AO+TB7byxo648DLoVvUcOZ73+pri8snE6PQ+zzbz0irK649TLO5io87yxiAE9UrOHO6gGSDwK0VO9ekVcvQMCrL1Syqu7VOACvHy/rzwYuTU9dasPvH40Aby1PFs8i4U3PaQB1LzFyJA8txAMvMMjN7w1Y788bbjLvEoNCL31n5o8x5f0unHQE7z1a6e7pm9iPCgVSLweYLM80uY5PC7VMT3gQhc95wbKPHbU6rsUZSI7Up+avCkmrT0B7vy7jw6APALTIj2k4Cu956XTvBwvU7zkCP28jUervMBrh7wDxRo9L29BPYcbTjgT2RO5BEFQvS4e8z358Tg7KwUJvWXVqzsqJNy7za6GvG+gAb16Nq68otvwvFheUzyZ0my98SUPPEr30bvFuVe8a8qtPaymaL2CSPs9Su8nPKRkoTqz4IS8WXj/u5GcEr1DC+K9K42Qu300T73bJgI9YoBKPVi+0L0YL9q8aJ4pvMzQejy7nKM81R1MPBHj0DxkLAM9RUFePbkPI7iVas08j5/avOxDqjqICaO85nx7Pbj/jj3mWYU8i0ejvOKJUbvTepo8BTbePECyAj0wP+Q8AqGKvcxDej0DHYC8z8OOPJsTgT2T/k+8fxGsvETcJb0kNIQ6Ix/ZPJOCNT1NO7+7Z91xvO3ARD29Amu8BTY5PRB/4ztMTtA7XF9gvM5IVzzeNvq7Ct+uujGkeLprbqW80j4KPPeD9To6GAy8prHau1MR97ub3lI9wtN7ukyQl7ytmxy8ciWdPBKr27uMwaq7q0UJvMQdizv2kTQ84JdOPGzOS702+gW9qt6ivVgUvzy4NwU9OMscPQpuazv8Lgo96OzvuiZJjrvKL0C9DRTGvMFGl7wioXo9bL5IPWAacryhqQc9JbsnPLbsw7waV1a9ZfGGvaVDV7xxMCe8dnOjuwcin7pW/US7SFOdPD0Y47wIyAs9BFZQvTBJtjwl/DE8177IvF/sRr31opc8eturvCyyjDzi59I8MQnsOrSxzzgthRs9DbkiPB8F+bv+iEw8jUmBPI4O2zyTFfu7NyhuPCX43zyghLE821wnvecGeD3OqFO8aN0lPH/BL70be7w8+0/RvODpsz11HwS9OE3TvFd6YT3v93o9gnRxvTw7IDxlxVg9AtgHvUkGRT1LsjQ8XfD6vKdUObyMBmW5f88xvDvzhj1Oqqy8nnHbO8dkaz35+uo8ZWAfPQ6fELzOiB08UOv6OlFwhjtZvee7bf8OPNkYYT1BsIu8hi5qvNrS+bvRDSc9FaMIPRot0jyJJ9O8pmddPPZxyLuy8Rm8p1yDOx6ic70A4e07H+lgO8CuMb1/bnK7WEg5PflcS7w2aIk8cTz4uyTdzLzfaOe8TNJPvN3UGj2Wwb881A2zvO4f7DwTyJi7XlivvB6DQzxoDOW8s51CvXwBGj1b2WG967R5PNj8PL1KGuG630vcu7HCfbyKpIa9+2KFuwNOe7txEOG8Bik6u8ya6jxCY7a8JwfaO3oHD71udiw8ELGVPH8MlT2yT848f2xIPHnRJz10q/e8uoD2PAJ6irzvcpy81s4BPbQepzvUwR09nOE2vRM77TvJ5YS87GoLvKPkab2uT948HGWYOw8v9LynsyW9yFLbvHdUJT04m5G744JHvJn3VDwRBpy6P0uzOyqVsjyRjQ08+3PEPKJcEL2hvrQ6j/cyvK8p4jrYoSi7sYqjvAuwTbxqL+M8MLCHvNBdH71YUI480m3bPEJ/IryWjGQ7MyvMvPmg37tN+/o8Xp2/PPawWDtkbSO8UQVJvXCq8jtOfVo8kPr8PL06cj1ExjM8B7jlPAW4Br2zyQs9Of/SPKwMIj0ttKM8xoFZPCi3MD2YsaG8t6yZPNbA+jyl07686RwKvVnjUTyr6nU7MTeTPFrumzx3jba89kwlPKwiCD1dkia8Z5QEvHoaBr2LHsY8/yJrPd/aIr3LQ7k8gxvbPPJig7xfoiy8XHf3vCKVuLyOtqs7L5yfPNhGezthbNA80ajSO/0qCr3jxi89wNgPPaAgprxVXFY9JY6IPepGkDsb7mc9JLHJvCPgU73iE688QqjXu1nGqbxFRcc9Sxh0PCcqFr2nGRK8Cpz3PE6Sdz3WYmG9CaOAPEKZKry11MK9fPuFu7DTPL1KQnS8r9hPPULkgTy13Lo9a3HMPANygzzkwQM9EDrAvFaiHrxl8pq8bEhQvAz9QbwHN6E9bjP2PIBc0zv6+8I8zHWXPTMJATrIjB49WMLlPIzp6jzfOeQ7qdzyPUCeJz3Zx8w8yGY6PeL7nz3Uqbk9VZWPPN9ZuzwRwjM8jvyiPMi/pTz/HE89m8UnPRt/Vbw9/NA84dO1vCYdkz0sz8c6Wr3gPMBPxbyqT6U96045u6Rdxbzp9KQ89UWHvGMTL7yXlIO9QvA8vCK6vzy5Iu48w1cUO403jDyIOY48RQqtPKQexDzT/H897qfWuYGAPz18Cl87LZU2PTDRjrxabIc8JDU1PJe1rrtTaSs8SuytvExChbqhMCq8FkTCPBdvrbr6HSK9RuocvFciybpwZc68b8QlPUQJWTwlDtY8QfasvA/dKbyb+P08XfwmvfxIRzwYroI7ttBavIKTgzvIMvi833YCPKsYDb0uGPm8QCguPZ0JnryOsou9nfAWPU0tr7wFp9G9W3WBvUjuHj20G0A8nh5VPcqdHLvzoZo8ICXtvNiwyjuwNjs9cQOFPKIYhz1qDGm9HmkfvMj6Fb3xvso8vSWnvGL3Jb3V2Oe85hhpPeMFCL2Sc5w7LwegPXhPij1HGc680xqgPPYe7Dw+lJg8cAJDvYBzWDzl8QO9Vj2LPSTHsbuTkl28yV2OPByWKjzJFw294qVKPbVcvLsxqom9RFZkPb8cGz3R2jk9bkOBPK6W2byElBY9p91ePWap+TywbVo9ijWwvI7cAT00fPY82ZAYvVF7P72qzSK9xiITPFM2Bj2/C3s5WCbUuXoz7rqPAIg7DMyaPGFlhTxJQZy4vfL6Ow62S7x2w7o8ErpyvNb8TD0fjLc7mQcIPFXnzLwcEwm8DhDxO6gLDTv5eoq8VgYHvQKsNjslWco7e/ySPO+VHj2sVPy747xsvQgALrs9lVq9LUwWvadLBD2Dhpc8fAiQvKzLjbwaDYe6bJ9Pvd+ggjxCsg+8bGxnPXhn9by0SAE9zwCZvFtpAz3CseG8OfjAPOH1O7xrCLy8ht04u8NxMD0YImE8WdtHPbNmgD1iPaq9DIAovMnQbL0xoKE9lBwFPTuwHL1UiQm9Jvw7PIAArLuDPVY9uTBRPEIYtjxlGl09kWjWvRG62Trq+eS8gWkaPGNaMT1xmy494k3XPSk4gryutp+8e8YdvTPBLTx4oDE9h2skvitpcL18DjM96J60vI2vlDzJPwC9FNdRPepQsjxiq1K72TWNPZmq9jvAXvk8XmZ+PXjPTT0Y+pG8mne1vL0u2zyo0pm8EWY+PfGsqDv9pOI8DhbxO+pYBj3Rdgc8FpIzPTiJDrzBTEo9VotLPLej+jyfkD09OlYNPfgdbj2dew49sOsBu74mrbyWbww8OA/su4/b7Lv5GJg9mlhbvShKfjuz8zw9604LPRmDRD1Dc/+8o7fJvEcSCj3f6o88lnx3PZ665TxI3lk8IQh/PAeuvbsN+MI7ZC2SvCN8qTp11EW8/sUlPDkEJL3oNC29jiaFPHj/FzxuZti8WdaMuwgd7bwLf4I926E1vULgXD1dXrW8ad14PJvtrbuZ6RC8USb7PLyo3TzyP8e7wAXKvKeshD2rNzc9pdbgO8S9zbusPzs85g+OPWbRHT2Bfde8zj53PVT40bz8eCs9XHhoPQ5ribmaQaI9YMI3PW5gzruEfGW8RGsgPUg+5Tw8zDi60rNnPUh9IDy8/Ly9Wr9WPJmWdjoIPHI9HJ7KO+G0YrsVTbQ9zt2OPG81DL1k1hU8erqoO90jNz1j1wc9CdOpvMSD1ry3pdw8lG8NvZpeOTzmAYA9grDVPaSYMr1NhsQ8M/ArvaxwUT2YIUs9pLwEvO8FPb3zi9s76DliPUFeyjyAnJs9tTKUPbvgyDzvK9m7neLbPawoYDx8QLI8+NImPVruMb0MFlo7aEyDPfWkuTxnIRY9sGWqPXBmjj0gPhM8lM4QPe0O7Lud7xG90QUOvZhMoruhkii78CusPNppLbyT04o9I1lBPaNIHT2jgUy8dOvPPcRcND37Q3k947+EPUccSbyCrTC8NrZxPcjRBj2/F+26pCUTPKR0EDxCqKa8vpJOu/TkiryMBiS8uDGKPM8W1LwDHMo8OMfJOwEN0zzCO/I8DxAlPbwIsjyldsU8vQAnu1KBozyqQMa8HceUu3DGzzx4h6k6vyuFPLav7LyFETQ93kptvLSNcTy7GA475gr9PFioDbw46d68NgJevQmE0Lt3Xge9NwibPNo0PT3OMoO9nisTvVPmRjweuSM9jTxFPPpVTjyr95M8Ug2lPN0yVj3+Q648tkcNvfBjOryeBBY89s+wvNZNpLuJxVS8gKCVvARrwjz8lxG8wkn2vHNOmbwp+oE7uyKIPRsWLjyVzkI981ORPN+6fb2me2k8uz67vDqnG71zBPO8935oPWl2N70hEYK8hLAaPeFkuzzC50e94VQOumk2UbwnvEq7NtrQPPY8b7wVEeG7j+4/PQCMWL2wtwq8mfaKPAbLDr1aVIW8ckMXvUyD9DuWnoO8X1LZPGmhCT3Y+Ic7TPUOvF3gLTzK3ZI7924LvZrWDz18jBw8vJ7ZPOtrHb0nX+88O/uHPaTGrjxfdSi9vXF6O/+RcDp9Phg8pUuPu/bZkDyBVDq8GMcdPFO5lLwyibk7DEIGPZihR7wbE7s83yXGvD4NDbzv0ZO7FlElPWpgqLyjySE95ecqvREFDru9vfc8eM3BPGMd5bymFA29weruPPzmEb38AKU8jlVYvM9+EjvB55Q9z+NKPZt15TyzdSC9OZpIPEL3oDwSlwS6JlowPaRvR7xH3VY6PgLQOyPupbxvBSg+qVkbvVbCWjvACqE7LqSAvQPGJL0tStW8h4nYPGmW/jyS4ac8plmrveukg70RXhM8+I1XvJ5UVD29STE90JA1Pmu3zjxjK+Q8wkfsvPzzljsi/Aq9Zp6CveQeC739lIe7Q28ivNl7STuDKG48i4PrOhLDgbxL/AG9RHaTPX3hi7yf7Bw9T8uaPaL/i70YU+S8UVyCu1YeiD0U8aW8pxUoPRJRZbugqJ88zJ0MvQajMz1rDLW9XJMlvciUmD1f5PQ7bXXNvNZPnz0SB1A9ywEWPcEL9zwwuxo9LOTFO31eAr33MqY85FNju6rGKT2MQSw9e0SPvEWRhbwH/kA8XsKyPIXX6Lseyp26lxeqPBGhYzwU9UY9CAOQPHldE7zG+0e9eZ3cPGkgBbxHcwy8rMbeuyvXPL0UYCK8BySfvUh9KLxAIdC85UFvPRoUgTzsG5S7ieLlO/v8xzxfs628EEKlux+EEbzKa6A9mfiKO3dLb73R/dg8s+2mPdGZ4LwQNd89ON9OONgxBj0IF3y8F7DPu/5BE72BlPq8jzmDvelUGD36CQm97bZaPOI/RjybPJS8RANeO7HghLoDQ1u8QG9gO08lYjvijPK8ozQcvR9dx7yKcrc7R4k2PUSRQT0bGT08fMP+PCRuuDs5WRM9XiS9O+e9ZDwGLeW7U+HTOofidz2UnBC9Mc/0Orpqh7w++wA9InZtPe1sAbw2Tay903GqPBOZqjzuv069/S+9uwvvvLlbXo+9Z2+5PMFQezxBMxU8Etz/vAlXp7x0cpO801qHPHfM7Lxp8EA9aSNbPHtRh7119lw9fMrVO9Q2frxmA5w7EzBivTrU9Du2fpm9yC34vCP8Mj1HKSc9AmsVvI5T6rwlNfo8ajqsuK1IBDzA7as8cWwDvetl1jxoG4S9TKhAPUDLQr1MBpW8hJmfvBFlxTxr38k8XcRNPJ6ylTwysII8GDZ7ug8ab72615C9S5WQvU2gd7n7QMC7Wj5Mu48mBzx3Q8m7Ow32vEGMO71cOG691IwgPV4F8jzAySi96Nfzu7FldDzx7lA9v2GRvNP41jsl0Bg9ymdavdVps7zOnT65hWuwvHaoiT1lD+c8bu7qO2A+7ryoqOY8D4mqPPhXeLwsNKs7bMQ3vai3wLoxoDY9RM8BPRyMnDx8Ots8UIAxvGYvVrmUQR49XSt2PP9ntrxqgoc8mqDmPH/rxDzEZzE8/Nd6vJapjLoy1Fw9v0KyOzSLpLwff3c817Iava+J8DxZeve7Mcr7PBXspDucrig9HPGUPTibp7znipm8Yll4PKg/LTxiuMw6QFokvJmvDT1Lbas8ILaJvWTGODxMphY8X50hPbf3p7ws0zu85OAVPdJBlrzB3tE773hsPMmaKj1DSlg8x1novBxzFD0KDOm6ENMmvH/pnz1M8i89krwEvYJpa7zSyIs6vjDMu189cr3yQAU9XH8mPWEwmDyCIJY77tPsOxj8pzxNgwK9apYfvJy6ibzKm7Y8Yz0RPAtUKb2j1Yq81qJyPd9D3LxEu4c8VM3Cu5rjJj0EIPg7uf4bvKCSE714iOi712XXPB6frzyweCa9iL1IPWPX6rvQLAS9yLqRO22EmrzzlI+8+DedvGwcG7sKoXe8vulXvXZLiDyEZoG8q8gZPWZpizwrAKA8bFbFOw1RJj0akyC8o5z5vORGNTzpMay9/eM1vCZv5Tv9GU68ZBkhPQDZjT3zFXs7wk9GvC2Fgj1wdpC8fWtOvBIgwDyCfyq9RIfjPbv40ruWuG29RpDqPGM9MT0mdjs7Y3BRPUEjgT1/IKe8L7koPGEKHr0/l4s8ZCu4PFMNjjzruBu9WeravNjoH71UQDu9mpUfvQehIL0F3s67RZIcPUkp3jwOafu5vqRAPNbYsLyBdzg9vbgHPdNVmz0mbPK75TiwPIe6KDwWxt28INcEPTPhqrwVcmo80FMsvShmNz2a6vk8qVBOPDOIpDyd18O8oT+ZO4quOD3wCLY9T0+KuyFymj0iS5O8vpsLPFuDPz1koXA9+fdVPBnGTrwHbyI9BE5APbY6oj05oTm9Q7B4vKygHb05vPO8G8nJvFbOCj3Nrqc9GW9LPYxd87xogCw8sV8CvQ/bTz11F5c9+MOJPIGgOT3DSoQ79dR4vTRwer02q0e7SCCRPL52ID1oFDC8REYWO3EPATwaOwY9tNMNu2lKCr2dogg9XIpPPPf5QDxiniC9cux6uTcUWb2nZ329mOTvuz36W7yfPY880e41PeKUjLoQpmE9OYmUvMN3wDwLBiC9epd+O/3bH7xsZNO7A0HPPAT7bb3g6Wg7PzqmvGyfazuaIEY8hX87vCT7cbzqF+S84GuKPObPqbxyeXo8feIzvb6QMT0q4/i8AFcKPXZFYryIgYk8oz2Ru6syqzzpaQg51v4rPQ9PqTw8X9o8WHxXPYTxr7zKdig9JdY0Okt4Or1N8HA8cRMFvECrVD2R8Cm8q6BWuqtVNTxQkFW9Dq/RPPom9Lw2B0w9Rp1TPUbE+DgtgEO9eHwUPMB3sTvfjrU8kvUKvNzIEr1hWAs7V7LEvK8haj2WLam805mEvLG2nTp7VgS9Fa35u0J3iLtzX3a8axWju5gGNz3xfVo8AnEoveQY4bsO1Os81GBdvByGJDv6cmm6vSCFPE6VtLuRZo67r2vYvNLMQzxxaeW8iXVbPbcyOjuSWfm7CNzwPGI8Kzu7WjI7ri3eOroYrryzLui8KSOwvOSEDj3TDZ68T2VMvBI+Yryera88GWZ5PaTL6LxPF4o8HV9wOwCPGLwyW348cfMfvT2M0TxnIt47+AT7vDmPSD0kINY8LkESPREMN72FnQi8xISDvN6UnTx2aCo9565vve4LIzq8kX27v1P7PAWao7qpiP873pbDu0RIAr14Ck28LR9jPJTMcbzPUQw8xFpKvsEYDT6JgB49Slu0PMIpCb1WFoC9HYOdvMfwursQKJM9KiYkPQ9AsD3JzBc9VcQZPQ/V+Tm9IQk9wtYlPPvtwr1WqAO9BUrRuF8xAz0cZhO93a5SvRDN8z0Xu6O9sARlPa/0eDzJFYS8jJW+Pei3nrsSr6M9e26sPUjz0ztFwDA5jrPXOy4qvDw5VnY9idBcO054KLx2XxO9OiTwPFnNYj2MkB89M9J/PSTvu7wVok89bG9yPeYCmj0zbzA9wNXdvEP6srwc4lU8WelIPUZ7+rvCbJm9Qw1oPJnnkT3qsYU97NEvvWQCN7zXS1K9fK+NvOGM3j3jpv86dWckuojJXrz5QhG97hxVvTa+CDlqPw09vHmfPY5fZr3gwcI8SSlGPVbudb1GT6U8zlxKvfA/gzyUazk9FaL0uKJJEDwwTa68QWYRPApDDj3Iwbe7NRSMuw8yRDy/2s481JhNva2K8Tr7Eqy88bN5PL9CAj12+xw8eWAiPUvv+Ly1NE28R534vBsz8DohE0I7GbDGu1NHGL2l8Bi7V49bvHrojT0gSQe82EkSPQn3Gz36Rl+9aV2tu0GdM724PyW9FD7IPWKrT7oRal88AdsOvSvVgr3hsxO8ygemu7gJDL0cVzk7J3QFPfMTojx8/kI9APzLPBAAl7wrzVY7MU9JPIjH1LwvDjw9Ip75PAEF9ztFaae8xyoPPjQbHD3GVe08CQe+PXpmVTsgghM9O9iGPSbaZD2xjqo8tg6iuwldxTwvnck8Um5LvQCzvT2G8Q+9IUsEPaLps7xS6Cg8dha2PDxW5T3clDM9ExmBPQ8+bT2z2AQ9Zks3PU4g/TyfwZw8zRuxO+5wijyTIg07GKERvIltUDwYzOA8t+thPTZTJT0Dq/68LmvevJBYtbyfpwe82fzxuzuQDz3R2468Gg5Yvc956zwEG5q77fwPO8AK+z3aGLE9zhKQPKy/QT2YK2M86fr3PBBak7w23Ky8hwVevBhtSj2TmEc9CNORvOzfFT0FH4S7uwcLPf94EbyCevg8ut4ju7pZAbw+iIk55Qi/O9qhirwseSi9m6tZPZL+NbxDB2G9Sv2MvQesrr2tI5K8dLIvPZOySb1oxxC8UHdjvYGdDz1DPko8WZNJPYABLz3/UFQ9xpyMPQRvrrwIoSK9FU7+vO/2OL30WM49Ug2auwbUqDu+fmI8g/yIPXtaNbwcmCI94fh+PIssZLubCMq9Cl7yPCsJsrzh+FO8YjcdPMWgiDuUWL89H615vLbFHzyCdEI8IDYPPNDPtTzGgkG9kRMyPbP5qLzOmCO8NnxdvBeOXT1bHpc8AXO8PNw/kryfg0s9YaLDOnVfnDzsElS9712QPQXlnTwFO8+88nZaPZ1CtDs5arg9iTUQvNVzfD2vcQc8l8wZvUoVBz0HKrI8dHhluk+Or7todXC9wk8VPen74Tx2Vee7znN2PbY9Cj02FUo6g+OjO4frHbqc+As9gqyIvLY2/Lww//M8doBMO1wtGzzzW5A9JD3xvMZ5bTyZ4lK910+7PJzCYD2dDyA9vOG2vBNdCD1nmNA8oPsmu4hMnj0LiKg6r5LUvE8ZbDwecma9io5KPQguAj1/kjW8xsqlPC4Ekjzo7nk9n3iRvBorHr3ANny9L+MAvNJSQb2Fnoa7jhpkPCc/S7yPyeS8evEbPdF0obtnEwo8pAb7PNH5H727KN+8H5GgPSqrbrsxbtq8SkPZu4gBh7wyUpq8FeaBvEfuHzqGFlM66sijPcv3fL3VMji9isXRPJu1ZLzKfx49rk0RPMG0Lr2tWYU8QN31vJwRBL3ThiA9JySIPea0bbpuiBY9wDAsPD9Xmz0mA5+9fhwyvG3AITze+Fo8M/myvKmUcrzkTwo9MJReO9MJnbsiPFI6MghrOy5wMj3IMfk812H8u2YfwLzmAbq8KksGPYD9QTx7Lt07duODPOxeUjw8+B88fq/fvHQsYrwGJlc8Wn4oPPA1QLwSvUe7dBQnPQMK/7um3nI8O+4LvCBWzrxGYim9v98YvJ+dxLy+w0E9zc3jvFxTnLyTqd88qQ0Ru67dhjz0eNw8KLJLvXHSOrwFc+e8quwoPeZkFLsMiIk88gdTPUBuKLxntXG7HYZaPAmfQbv3gEI9l2HdPEfXAj3BcjI7RsQXvMniHbyIxyK8JONIvbf/STw42tU87PRvOt1oZLxo9Bk7HqQEPA2zNzwC+GU9HFLMvDDySTyRbrY8D6FqO82gw7sbWva8Lq6KvOkhujyMQzo9yjKavLPBfjwqbIs8Yp8CPcVIDTwKDHA8yrHoPNpzEr0gOik7ICxXvfH2dL0/oMO8Qwg7vaqThzxCrvc8SYQFvM5+Sbvqi8O7/+Pxux5Dqzu+lz88OYlTvINluryMjHC8lzvQPF7LPrwDjDg9vX7Mu3TgKD3CqQ+9LFGtvDpudzwCAYI8pCRxu/3NgD271kc7wQchPFB0hLwZc1E9b/bZPIFtTzwY/Ui9pasoPO60XrwWsEk8iiDcPKn2sbyOAto7WRXYPNwKxTsQ+BG82H/9vLQ4rbxqKxu9EPPtPJfRHjsTBhK9yrNaOkVUIr3ez8i9rNASPfVeDT2tATK9MTqpvEsE1zutokm8+TfLvL+cbLwanwO8NLWNvNgUtjva2MW7fgK0vCBS2DrEBEm9bdU1PciaUr0Fnb66lGU0PGWZUjzJCw8840IfPdm5B71NDLy6g2utO0uCfbxBC468LukhPT1kqLxfuF28pyz0uxj1tbsrdLo7w5qwu1z5RDwdxp87HDJ5PECdKz3bC8m8JfhNPa7kT7yczqk85ta2O18TBbwXxG29sOxIPd6ts7zSR7u8b2AFPbnqQzu+Omw9j0RRPZOuszzHUgc8jsXAPN5+Hr1kUL87Tb/VOwaJW7xz1Qc8fFolvRyC3Dw7ciA9TsMbvX2ODjxGPD89n/5XPDbY9rxiFOy8DxPWPOXuYj2bFgK9mzTnOkSHuLwDGCW8uk0hPCY0ILrOb6K8XoaEPeV0hruwXKa6XBAKPZabfzqU47G7aqPsPBiy97wQWKk8xCsAPVGJpjzNVYS7wAaTOQAYTL0VSgG7uwsqPO8Z5DyvQpg7Jw40vCKCx7zllJG6+CmQO5W6FT28oVw6vMBqvB5imbo6h2S8/uymuyMfhb1CgT+9IaMJvenZazxqVhi6jZ3KOz6lDz15Cfm8bZ4PPTo/Wjx4KKm8xZdBPe3LJb03rwi9Ku+Nu4itTTyNsKi7sKeAvYxmCLzeSgG7KKCbPWbVJz0Bjog7yGICvd6LLjyjiAu9SXjUOzMIRjwHDDK8+fUOPMDvFLw4hIa8Fko8PfodkTyPBA28/im2vDckvDvRiI08JJ3SPLfIND1FzGc8eNMFvSwxeD1Nuw49RojNPOUSJD34sDK9tWktvNGmcLwBKRI9vEcNvT/oFLyv6zk9h7egPMlqM7zXxWU9hF4fvXW6Yjwnwc6714d+PHO4/bsPSMe8qSvcO4LwHb2m+IM8hEwUvErN4jwkiFK8QbmfvOrHRzxKHhc9YG55vSaAfzvXtJo8UK8qvS9q0rxMtp48mG7FvDfBl7wRclE9h6DhvCxrzryudIu9ekoDvbfCE70aDFE9IbAUPffkF70QZ289ZSm9PC6/pLtnW8Y8oYg9PJrjtrzr3lO9g/fZvDANBDnHJii8DO6wvP1i7jw6s/+88hbaPBdOZbx1qWQ7QbAGvTJomzYojLu88GtSvfzJrrkc0Ke6ssrKPEV1DTw4xfO8drqSvDwDlr39yAa9YRIePS9rOD0ch7o87AUWPF8NkDwpLW8880tRvULi0bwNbBA9OtUPPT417zudSBO8p4w3vFNFgryrHt+8FNhovQZZljvod1i83BzKuxikUD1U/pA8PPGovKY2jjxB1jW9d0cAPdmLAjyXxba7yv6LPI9eMT09rF68tYvuvMywgD1kVSI6vRk2PQzloryOWzo8K4mavOUqmzwn8wO8ZqWhvB8lPT2FZCc8qy12vUKa4LtjC968GqoTvYb1jLz3dGa8V5GQOh8pwLy8J2K9eIyBvF331jze2SW90W2XPFPpozw63Vi8FyEYPNqIlru4xHK8Sk34vD7wYzy/evE9aJngvBMwEj3SA4K9+g7WvCYa9rxu4VM9o46PvL69rDy96Xm9Hn9qvbKMijzy5Iu6cUWmvdQ7ijz2esY815LfPTlxRjwbLE693oDKu1PUyTwk08K8pmYzvcrahrw2zTU7iVrlPN5KG7z41Kg9N19GPPk7N7wAtb+8j2Z5PPwD4buhnSO9+sQjvZm2CDyLwCu7WkWhveumNL3dxFe8fww5PNuE0zzv4Bi9z2KRPEIy4braSHi8PCYnO5NQHD3w9Ig8KHnaPAX7cLzSfIa69dQOveU/AjwEgoG7jXq9vH4Y7Tz6+FA8aJK6PPkUfDvWywM9341fO1BL7TzVRZE8mfW4POrmsTllnRe941I1vWvSXj3RYoA8UTWVPJ0EizsqUFG8GXGwPTmdCb2nr/a60+DJutT5Cr1SRRy9UM+svDL7KLwPsW68QNzHPArWEL0u7UY8e3Y0PTB02zyB/Au9JXS1vYy/zzwcJ3Q8bu6PvFZeHT3E1ka8Cz1UO2si/7yq1hw833tTvOp6d7xasQQ9MczSO4jEN73M8qk8NSnbPWyEzLz4J0G8KtVaPYlOVbvQk3M7vrmfPI8F7b2KHRs+UPOuvBdyhLx3v5U9TVegPePXfTyBYR27pE+XvJRtDD0CwRY9rPXPvBGFRzzdZyg9L8GCPHGrhz2bCyc9ZjS1PB4avTvniqE8gUdaPVwexzwKjIE9liSnPOCrvDwRhsU9ZKk7vSS/ADzXFv09t5cWPnf6Q7z+0JM9Kvx7O1mdE73S0IC7euantzBWxzvd0la72+btPKXS+LgGapw9IIBZPbTotDoxkw290Vm5Pea5hDzeCUE9OPSLPRfJS7zX9rG8EjYsPZ7Z3D1xdQS8iIZGvUP6SD39Yfo9dWNCPez5ET2q6+q7j+i1PAu+ULvy0kG94W1KvKs3vT00Isg7CkL6PKH9h7rDL+068PmcPX8doT0ZCYY9VaHuPEWCFDyii6K8UDwhvdiqRb2WQKM8hZZkvXvxLD1hbNM8Mz4QvC+ZDb1cZ206jhU9Ov3CCj28uLW8RHE4vGo+xbp17wa8/bmYvJdVUr2qG0m9rkylvLbE2bumM/Y8yhGOPb8CUz0x00M8sDNnPT+YXbtGn4C8jlSOPeaqAr2SZ5q75/3+u7/EMz3QQMs7xAl6PPgnRryO0hW9E3uxPUS2Mrzjgw29UKTTvAGDv7wuueo8tlNTPGa17TuUmHI8wbdnvB1nFr1TaZO8FAgjvbh0q7x6qq08KHY7O9e1vz1kR029wJXeu01aRDw8CO+8u0sNPLeUgb1KMQq914EKPXuxJb3n5UQ9+0xrvE5ii7xUv0+9+0WWvI96PLz+ahQ8gVNTvUELND03h8Y8JlwrPUKY77zggDC9ws6QvP3wETxLL6c8JMN9vMDa97qAAXw8Ldg7vQ+tgz2O06i8cp0FPMCZBT0co5q8z1w6PH66ST2IonQ8MLQxPW+kgDu2s5Q8D/2yPE572LuH68K71gzvPNAuBjx/W3o8L/0UvUNPfzrFQiA9nnffPPQ8LzxAYsC8yK2evA3nlDwd2mg9qoeJOwj+IT203wu8rlAVPfC/8bx1eMY7IDIBvZ3OpTxsbpA8RGTlvGAWs7zD71G8T+A0vdai37wygNC8BcnDPLe5Kz3SjlK8xcwFvPbs4Ds/pHi8RxUBvI1R0Twc/fA7QPYIu/rLiLyYczY90eySvJsBhjtRxPm8oDaOvLRv2LqXUDq8AquGPCKtDbub4Se9zLaMvWUB+DzyXIu8O5gpPcDRYzpS/be8ILeIPCIJ/LsFnyw6i43gvPbmljzjKwg97ex6vC2hXD2oL4i8E0EBPIsQS733U2q9/t1zPc3eLz0WkA49h6pOveqjxzugvlQ8GnM2O18hBjzhQN68V3Hfu0BdDL2PIEu8bZvSO8Xj2rwwKQy8QGmQvFF32bmTctQ83E2+O2FCLzwuSC+9NlQsvEh3qjzdrtW8LkuRvN63Cb0F9CM9Dt5dvEnb17xo7pc8fdvqPLvhJTz9c/M8+TDZO8AWurvrd5O8rtZ0vB84kLwunMw7VGz8u3NlEbvMvZY8kGuzutwIJ70jMMC8d1QIvWgCab3zkAE7IDcWvZJsIr0OxQG9P13UPJuROLwWTeU8mtoiu1a1hbzH64I8Dg6UPMZgbjtF/Py8qmhdvLxNEL0Ozve7GVFCO2CwNj2UDi49znOnPAJ/6zwBsOY7wWiqPSkPPD29raI9yUQ9PBCjTDzaqwE9cMK8O9tKGjz9rvG8f5fnPO/Shzu9a8c8UkLWu5vUWb1+Vnc8a1YPPZj0HL35AO68NMx4vGld8btqp1C9sPQ7PQef+DyjJpe83XVevTlk1DuctGk9xajLPCvkDT2Ya+e8CdXhO1k+OL0AI3M9SgCMPKZUgb1DTmK9p7FrPNhJhzt72Bi8aOlZPHyidj0fgIU7x7NdvaD3n7t+MSG9hNvFvNAoHzyYdKO79R4DvewybLpG+Nm8GkxhPNjNJ7xELZs7UidCvO1/lDwd3va7nLrkuoOokbzcVmk7Gq5cvQVNoz1/fKm83ty4OfhvkLxP+JS80y2sO0IPhLyl8Fu8671EvbSo6bxiQiq9cuc/PU5xJb0hcQW9D9A8O67pET2Wv1G9u0ZEvVb3ZLti3Io7UaRLveQeX70i6e+87s+zPKQ06LpXJbM8UtFyu/X67rqWP4s8cXaTuy4kyjtWduS88gqhvFPCRjw+lAK8NmvmvB2skTw8jIE863xSuvhbv7y/f9c8VCuYPYD/zryk6T+9zrPEvJN+6rw6+B29pPQTvY74yjxjz808oiwzPc3ssTxd2XW8cXMCPY75m7wwODa8JggTvRjJEz2xX/I8KtpvvDDIJLwpU6M5arysO51LyTwzwZ868xc4PC2HO72aJSG8KJNfvYW6Vz1PESg9Ix6pPJEbBT1fy3I94unfPB0XR71ABOe7hWGSvapIz7yHdBy96bOWulSJMDzujeu8xVcavErI8zsbabm7FBjPu56tlb2l32i8kIi6PJ7W3Du2Tjq9DbgWvPnS4zvM1fe8eCqdPPOHzbxZ+jO8O/qNu/2Xhj3RNy+8aiyVvBUKpzzHU3m8wlCaO2mvjL2riAA8bQ7cutcII73rMiI9v0wHvFDL5LtG/CW9FURMvQ7FlLxWrT+9tKhePJ1azDwNPKW8nVhKvWZFVLz79ga9dcF8O7P7ijtvdWS85duHOjEp9jzwhkw9xeSJvNHKpzyzTwi8As8GvXCVGD2AOy08NCFFO/RmGjySrce70l4GvZUlVT2QA9M8I3vaOyIn4zz/6hg9bNLsu3Ykhjx2rjO8zDyUPMxIEbzaAJM9e+BDvMghaTxnRE88N+o4vEPk2zx4ynW7EN1evEl5nbr2uMK8musNPbJnjzzHG+c8RBorvYpH4TsSKce8kfyvOhhtFz1LqdM79YLVux2DBD1cMO48GQFePee7ab2tfQw8YhZhvJkY4bzv7RA7MvATvdWbPL2A9ue80sEUvHk7jD0QpLC8GK8UvT0SeL2UMTO9TXOPPBQnUjuBwza93rmnvDmtir2niQY8WTRCvd85pr12fwk9tH7YPDVnGDymBRg8oEcEvb+k8Tz52AW9VDBkPWIa+zvdVGG9deXSPMOSej0/0Re8v0cxPfghp7t2LqS8F9l/vce5yDwgqtS6mg7zPCc3gjozx+a8FKFMPbUrFbwZzei7T8kdvXMegTy73bU8nox1vAIt27stUha9He5vPSCOL7vdNSu7YplRPUsGEDygNTi9JxI7vNL7qTsuAFc9d/u4O65tpjqjIjE9WG4cPQf737zHFXg9Qc42PZoNAz137JO93sGhO4MYKD1rvRa8UqiMPRaiqTrxYb68RY+lPLSAVzyVM9o8aDvWu3ljaT0fRUC5WwUgO0ay+bxx26282qGuO3Maqbwvs2u82m3mu+0i4Tuierc81QC4PNBy9zxftLI76SaNvA+VR72qUDi8OFTLvLIhZL3bf0k9uxZnvUUkJTzrL4Q8hWT/u68snz2nMmi4QezDvMT0Vz1JXcy81yU1ve90/7zgJ6W8NCk6Oj/RHDxE9z+9ZZyiPMmHiT2CR7e8aIZ/PMVpTzw+QRM9W9CrvDyhyjyKjgq9JNIFPZfJ2jwjMoS9FZ2GvYZgG72nmz297SSJPHcaxTt0+A8894rAPOauRzsFbBA9zmS0vI3/ML02I1o9eZbwPKeVTL0K89k8aYP4PHwEgLzqGDu9HIOEu6ZF7zoIoAc9qw2qvMjrAT2TNRA9therPBlBhL13Wii90iu5PHARXrxXkpS8QS+QvGg+Kr2iGhq8qtbnu0iB0Lxxcfc8/7zgvG4VCj3WB4y9aBauPe0qLL1aCdE8scEUPcu8UbrJYbQ8TfbAOvCvOL3NIiE8ANdmPXXBB7wWbG+9wCwfvG5UFzxfwgs8+V8HPSzhhTx/anI8XDF9vcmWjj2zfBk7QaXuPL/wNrx6zFC7FHNaO2DCaD3FQU09ACXTPBhyfz27+U+8gXF5PH0dbryd0x89PCYQOiSO8Dz9vVU9Ou6CvSH2hj2+oxc8RwcovOY7cr2yiR+8fS6RvQBTEzv1Wrm7mw5jPW07K7wQ6QQ9orsQPdq9gD0x4wK8RA+8PFlzQL022gy9pjwPvBYYi7qVJBq9ccxUvIyprTzyTDI9G5Glu/Rd4rz6Kac9JZFlPc28xTvWP3e7C/yPuz59kD0giKq8u78qvV7ABrzVPJQ9zLEqvKavuj1aXlw8Df/fuxgGVD32+vy79Cg8PBazA71j5Ca9gj27vANBkjyqXme8QiRjvS1rizwgSy08ZhscvDuh/bvbOWS93QdIPY+i2TwJCxK8v56YPVNesD3i+7o9BeSXOubAaz3ZwCI95LrNPMBribxZN0k913g9PEm5rjw4+WA7eXg0PbyhXj0cPo49vpBhPIm9IbznZTU8i5XPOyeKgD3v16s9dKk3uwpvg7x2RhE89DK6Pdt4UztyQoS8vA2SPfgIxzsJVGE9PCSxul1tiLsFmhG92UP3PE73Uz00Aye9e9iYPNJo9TydkZw9osuNu0w2wLxB2zY9ok3ZPbffATvAbf08HcmFPb6Uhr0viYi9IJPkPLEkwzwPuy6952GCPEPZpDqutto7TcXKvNuHZLyfDt286eDMOqA46bsy+lM9fjeePEBTRr0hdVE8k280PQHUDTw91gg9iEmKuqaJsTwbquu8MynGPDq4Lb1YzyI9GbM+vZtFhb2PpoU8xAyuu6flSztQflc8olJcutHs4ryhydQ7LBkvPGJMeDz3XHg95z+5vKE7BzuhEo08A1thvL0JF73UB4+87CAGPWvYB7x6OJo8aRi5vPjXYDz1Tqq8H1jUvJL5QTuW3dE6QsQ3PX6+TL1wRoA8wR5LPSChKz1FikG8v8urvM+IebwhoRc826q9O4FtKzwAg5U8V80IvZByDr0AhBu90dQqvYo1SLsVURo8awGfPXaWhTxyXQk6n9oyPetxvLyP+Sc8AiLyPGNmwjzmmEs8CHgwvE1IHr0B3Zu7bpmZvJ+/qTyJgIm74o6NPMdcS72XWPE88NnWvEHaRL2aWy+9bMmhvIqeCz02vbM8BNwTvWRfLjvkvFO7tIhFvZ+q+bxCGIC9pi7bvOwep73jdci8fdnrvEG+yLwfYc+8xKARPZcxNrypyO87pBW+PArH4jz4Rqs8n22LvB4mCr0W88O8hvdtvCurHDkI/Sy7qOkJPTLFT7tpjGE9bJQBPS+gcryXf9g8TNW0vfNELT2XB088iL5HPADKU71PfZ49RRkAvI1TkLuRhQ09ejrDu6n+1bzXiKU8+/3+vJCxujx2L4o7vm1GPZ1DGL3lhhw9y5p5O3F7jj2Hz6O8OV5pPSTair3orkc9eOS2vIVDjDwVkqg8kxXLvOkmCb35crq8onY2PTRLnTspts89lzIRPByQaTufIt87O+5kvAlqGT0VHmy9P5LkO9gMK72L/So8gxyivJV9h7xh+dU9eYwKvdk4ybuD3Mg8PZWLPJ0yKro5Yqw8fNl3PUbyubwzzZO9av97vfzKXTy+uXm7k4sPvWHkoLx+KEm822YXvXZkZTzDaHo9LzGAvLyRCDwsaa+8BNY6vH+WwbzpDkc7jjYHvF4TLzz/CNU7jN69vO5ajz2h8BK94CJIvEUFnT0j3VQ7K3VUPQ4iMj15pyk8gC9oves4Mj0pEDg7C46JvFeVJD0lGcG8ZOv0PPdtW7ynXIU8JymYvIPyqrvC+wW9zfawvI/9+jsAmqy76wi8Oy/oID34+Ge7UZRpvXwSEbwFGh87D3b/PAOjAT3zU+480lLlu8bGoTyIJDW9RSAiPfaWWzztgH48pr0+vG3m3DqYEqi87f6NPPjLJr1BqfM8k1SIPBITfj1Fv5263vo7uwSPwTulRpE6j5xYu0x8Cr1r1gq98FqOvNUqErwF/hS9RsYRvb/BDrw0+Lk8yxzAu5UZqjw66vM8t7fAPGurU7xoR0u8SwlqvV2Tq7yZ0mo8/4MIvczYKT3J5TM9RE05vDVr5zwO5TG9gp8Dvcv7OrxZIoo5mr+6uzpx2LwZsnY9ABoSPBy9DzwD6qo81x+wO+Uq6Lt3tIu8W3dNvbZ+Oz2jI+e8QrJQvUG6yrwWBUm9QC56PVw+NzxovzA97HM2Paepjjztto88N1S1vNAQKbsGk5e8WkOrOkF7r7xs5h49zMO/PESVVbuFnVG9KcerPEnV3TwcCwm7byUevRsAWTwHvgM9l2pwvdIJjjyXqGO9S1QeO/n9Wj2+Czg7YMxwPNo9Ibxs0le5nEmTPXAvJz0qih28Ofk+vA/QETq0e4k9AGLRO/ZpCz0JeTa8gnEfva7gJT05/xi7nGnEvG2DrbxnHqi8+P6XvCTaQL05ZxY9h3I/PPYn9DzvTSy8ba4tPJtJpzuY/hI9mvPLPMt5Mzwye6K8e0wWvUcayLzwjp68SMiGvM+kGr2Opk89t+4GPMgZfL1nhwi9TIknvYCJ7juOSgU93oP2vCR+ND0nFQq8zZIPPfXgij3OlO87t1uzPDsdwrg68YA9w7GsvMtAIzx5NAy7jhr0u+WNbbrIf1C78GH8vLhOe7zGbg49EBqnvZ0HLj1NzQ+9jcoovVdOnDxPXcE8ayiSPRaSszwTKvQ8mfYIPUR0D7sz5Vi6d1v/vVBSvDoE1gs8t82CPYR2Dr3BeqO8FbLWu3DI8TxDu6K9402Yuj7Ngj2Zqeg8oDQRvbn63js4gNI8IfCIPBVAfzxHSvW8nF9pPWnSrTzK7uM8g1VoPGT01Tv4RkA9JIPQOxHtEz3LJp28D9fku3ZP8zvoUHg74ULsO2+Ckz0PkqM9CzQ0PXDYmDwj1TQ9BwFQPFH8Xj1GOBy9CuU3PT91lLz/9CM9BV9avC4vCj0KgsG7A8Fnva4ImLxcSGA8zMXrOzBUUb2cyAS9ciy1vMup0btl4No7U1jLvDXsO71l6hU8FWkkvGP92zydNIK8h8qfPOuD3Ly+1wQ85sgyO6jEXjzuK+e849Fwu+D80bzB4J67KwyaPJ+1uD2I0os6IgmxPIW7YDt3aAw9ew1lPB9eAT1JUzA8cn+UPcaEKj3sYFK9igkVPG8GHjvkOYi96WTUvHqYYrwAAbW8U5qCO/JrXb0ENrk8Pi7APMD3LzwCSiG8vNqEOTHuY7yK8A09yM17PDqzdj0fZjO8KbYzPYspjbystqO78z4AvduLgjxgc9a6aKWaPMSiOD1lAce6lXI+PLZb3zxQnNG6IqCFvPBYMzwFa3s8lADCPEHhzjw4V6O8s5xePFygGD1jqGG8o0k2PM0Dl7xNe6s7v+hWPZeEsTuibOy8jc0tPHd22zurZQo93kIovasP4LxAlgu7n40+vYLqDD0oo3i9qt/KvLcZNb0hx5+85z7HPPpFljwvGOY8l4aWPOp/eb31UBg8OH9ivWBGdLyhtz28QSOEvAsLdjy+gsW86kVWPbdFlTx4axI9zMi8PIfx3TzJ+Ie6RelyPd2sAL1oSGc8q8G+Oa571LuVxSA8NaO2vKgX2DxrcsM8Lr5QOzfBtzwP0P28yLldvTTQjLxw/eC77/+ZPdt12LswJwA9DlvSPHRvgj3ZvXY7WCKjPDkStruYxdK8sTr1vLLXvrz09zA9hfsQPPrSjrsGb1E6MLOIvKbiQbo/zXW6prGiPC+Z4jydEBU8Dq7tO0BnKj3cxlc8fVnVu/RTrzs3pAg9RUeivIevQz2SD3s8wMgAPQH1qzywGXM9/gy0PE7A4LwCMVa8389zu+XDjru8eJs87pQzPExXVD0efuI8/SE4PcyFgjuCWOu7XszFPMJ84zujPwM9JhvyO7DCiLxf1Hw9hD8OPQqOurv0Phq92NUAPT2rlj1YbZk9NkEpvVC4oD3fTQq6DslMPXcwRDzIkYY9CY7RPJRS3Tw/jLa7lTT/PMyqdD0i40g7hw++O3ycnTrUIlM9AM0XPciHbzwoUI893Beuurs//rzoQ009mgz4PPHJD710g8s8u++fPS5S4DxhPq49Srf7PGYBc7wcEHg9dQGHuqUN9Ttm2pC94aUcPT7tV7xEVM48mCEZvSZ4Ij0nx7E9qbbMPWzbsr3JwzU93EO3PD+Mt70xZ6y8eJ3Wups8Mj2tssS8eKHpO451P7qr0UM8fpoyvMmA4zyiG/c8FpAivX/xDT3wUa68C5bouwycDj1yiYY7IcSWPDFbyzyX6Jw8RKBzvC4c37zWqLE8YJ3EPJXsRDwIgo27zEDdPIIUFzohLSK9JuIgPI6Arzyblsk8/trOvNkJlbwtyzg8CjJCvF1I8Lm72LA82PqrPMhGZj3guik87XJdPaN2DD0fpKE9vOwtO+jM5zry5Sc9Gkt2vPeOQbz8LRs82E1bPEpyL73fBSE8+M3Pu7/QGjtvHwg8VO1Fuw6HGD01HYo87PGau4Xh7Dv2ngk9uB4APT2EEj0n16o6z9AqPJaqkz3e0yq6Wk1uPetj7jxtPSu8QPokvRkQ2Typ+5O8NcCUvJ+MUr1/DBQ9RRM5PNM2zzvXUYQ8dI40PMIxCTwvjKA8tSz4ujrYkb3bns08FkKBPNsuwzsbXF09+oUdvTJCqL3zZ089cjmUPDPyLL19mBO8LNawPH83B709IKE8aqSHPeJxNj0EvGE7WD5hPO7nzrw+MQE8Biy8u8beprxDj/28+CV5PYvUyDvPq9m8e00avD5EQj3qhlI9MsZ4vFaaEjxR+/I8zurru9qhAr2XZ9S81N1gO4fworz8WBG9pKeAu4q4/Dz06L886Odzu31fdT1KeKa8+99ZOmj8Gb0h49Y8AGAuuuKsQL3WDLG8nI1nPYb/yDwGGc87B4brPM6TNr0tSLG8hoUVvVGCsbzKFQq8j1aZPNTiBj3qbQM9nbupPWPsQLwEkBk789CTPJFRsryR2rm7hXt2PPLjv7wnKYo8/hUhPaTc+LywhYW97VWtO/cA57wFEQI8MNAtvHuDQTymSRU98sjdPG4WArwblQO9HgWSvUlUfr1exqy83NuxO/qkkLyjknu8QWA5vRENQL0neUm9L5KoPMZtab3HjLQ8vL3NvOqQkDx1fQ48IhbEPH6ZFj1CxLS87VbjvEd/RLwMorS8eHOoPK8OKrvsMWI6Fs5VPEY5XbzhOwg9ropevYRa8jtga3o8EI+4vKmdprxUHt88UJ0XvG/Gab2NBSS9bI73PKj71byMoCA9XswnPUJkwbsVcIU8LI3JvL1JRLy/h6q8aBmQPMXNHL2GEIG7w0O+Otf3ezxu14G9OvVavVP817zZBN+7m2CDO2OLtjuvvnU9dkqePMzJjTx1YXK871W9PH6xpjzEjKE8Iw1wu0jTlTx28Tg95VLFvJGWhL2+ZcU8xD2wPMfD7bsk0168RounPalTabzNdha97LxvvKY5bjzJuJi8WQdFvGL7DTwfz1i8K9FaO/yY4LqeRtm8KQvaOuStD7269uA8xArQvGEu+bti8l+9PMQSvQ7mE7118jM9nuiHu425eTzTfFe9rzUYveetuLt+4ie9w8oIPYKNWzxuGHs7jWMJPFNSp7tmcsw8zmSpvMMuHrxaKQ89KxS6OzJpRTvN7Cy8P9mEOpixOT0/3QK8JE1Pvawnbzv69Mq7gBOWPDMo2zvlMnA93cnxvFX//bxiHZQ874H8vMTQBDwBT5m6dipxvXcjmzxIzho9qeFTPKn8Mr33Mes8+UcBveQBkLu+TJA8T1DDvAAGOb26y5g6vfsLu3dh1bzyIra8PajePLxUabvv9bm8BzBIvPp5czyGTAQ8eb/Eu689K71lS0K86fWevDm/gjq++gY9QHrgPGN7kDwsYSg7IZkrvKn5EDyG6Fy8iXZFvGoc37w9dY86KkD2ulWcWD3qO3g8nalFvAY0sTzxKnO8jnPpPIu3sTwB/6o9QsgFvcleULsUq4+7Zq35O/iPoTzjV/G8z5i1vIPL/jttkN48eAQKvT4qPb3PHgQ921zAPMpe+jya3u+8LSjgu2JDtjtR9EA8fFuTu6ZeIrusIug8K2FfvOXUTLyDUF28gaGBvGxcNjyksfe76ehgvKFjJD1jLyY9hE5kvJNyET1Ryoq8TKKqutvYdrtnzJG8VUxGvP1Qtzrvgi29Ye4Vvc0cyjs6s+I7aWD3O3KmlD20ZpQ8F5bGPMNtl7ugMZa6T/A7PAmgHryEgS09Jc5pvXDbizwlJ1s8wML/vMPlrzxmk3E8PWBtvLXbcD2w5rA8SmfKu1Anabz3A628HKkFPPXdfDpCsym9YFz8vAzjc7wfVDy8vTLpu8MKerz4pow8oXvVPFlFvzuNb4K94YGbuh2QpTyu0F+7gBLaO1QCqjs7GB+93yGWvf6H7Dy00zO8SeXoOyZOobsNhcS7MzkbPdmSEL0hP726CWAEvfiYZjoHzk48q7GQPBd1fDuw2yW9ICq+O+wQuDwmpu88STt/PQGWoTxS8/C8RtSCvOn5pTrI3Oo8IgsKvWGwyzzci448s2LUvFBmhDzFtLu8iq2mun9AILzR+7Y7HFkOvQiQYjxo/oC9UHpQvKNXjbyoHzM91YlnPOYodrwx2tm8nSw2uWhDnLwj8X89CyqkvaB9OTq1oZG9e5zoPKLJxLzxXTY9ZLZlvIkM8zyGJJg7w4UJPX1BALrdsa+9wjqyvB+YN71bX9E8BiRoPPB6e7r3pVc86PyTO7LCjbxuM2E9Io0JPDx72buXNzm9LjGavCmpTrprZsu7eCpzvKqzKLsmvQW9n6GQuBrzOL3rac68GQSevKgaxTzzyys8dE1zO/fOCr0bYDK8brG2PEp+ET33TCW9md1EvGS1qTkVN2E8QFuHuq0apTx4BS69L55FPYkGCr3IPCQ6mXyIPJiQ+jyj5PI8CRDLPNNOGz39Nmq7pwmqPGVOOj1IU6S8xAocvXVT8rzKlyE9znYSPT0mCLz5m8k7K+ErPBXLAj0tbU+9YzdlvKCpBrzq4Qg8YFO6OitvILyW+vc7PAOYvSLVsj3r/7k8iNjWPFHgkbyOmko8pel0PV0IWT0PwY86acELvcnKoju/dRa8HELDPNtuGL2BH8O75VTrO2VHZLxOS/M8tJUHvZI1E72AYC28kKi+POL7FryqVI+8VgS5PIfYwTuVA4C8VbNGO3uA8btGBIs8SVtrO3oCwLwFJmm82XRLvPQBJjxGJyg8k8bHvKlyw7vyngg8RwD+PI9S2jve5Yk9oSFXOQaaqDzWAxO8mWGyvBtOJTure1o8KEYcvS6bFTx0OSW8dFDFvNTaH7yNCE8852bZPPetwr1ZLHg8r0H6PDMGwD1o+yo8PCOZPINbWry6btM7/c1uPJl7lr1IGcO8do+eO91XH71ryDa6cT0zvR4ngT17hc26nQuJvKSb97w/VYO85S1cvTEl0john/A8LulIPaaVkbyD5b+7ngkYPYkZQD0u93W8kyjyPDc7CD0HDhc898hBvN6g97wky/o8oWSFPXOC6ru8JnQ9e9VWPQvaxryCvZy7BqwvPetp4Tx5L5s8cMFPPGDljzxdCBa9W76tPbsqIrz9kB693MpzO1X9Jz2ySXG8K1IKu4yD9bxNwjC7AHv/vAix8bz6VTa9le2FvGpxVj38msu4qRivOpiudj2vaCu8qsrTvPkTbTzrrhO9OrMTPGgbBj3H3wG9HXN/vKwfRj237f68XJOlvBLHzTt+zh68Eg3OvMSPOj2GII686w8TPLfHS7zuP+y7X6UkvSMq1jyvuVS80k4UPXj+C73oVm68b49YPOyjKTvT/p+81AuUu1rBG72qc4I6A+GdvdFYiz0P8R09OnfOPCkbuj1+9sG8gjFePIDpR7z0FVU9/P5RPS5EyL03zNU81U/MPNRv9Dw0aJW8tRm2PLV73jx8RIW9EtUYvtWqcDol7KG8f7OMuvEQg7zSfi499uOGPSW1Ab0CxLm8F3oYvVFVrLp3loi6iFcMvurwwjwDFRk9rCOvPcfnOT2WFGQ972lkPeAIzD2/xh87uasIPtdi5Ts53Te9N9fjvFRhNj0V1Hw8Zx7Qu0O2dD2rk169PBpyPV5jmz19WV88AhQpPL1asD1sry89PWHnPMq+Zz2Mckq938QYui7IJj3+UNk75ek3PbYiwT1Vaow9JMxdPb+tzT1lyae78KX1PI10NDwyZDW98BLWvMN1hrzoo1I92NlaPB9cKj30Rp67d7n+vJGu1z01gwo+yRqXPJWW0Dzuozw9Yd8CvRIJxLtWjSm9nEZlPA/Y6zu6ez28H5WZvMh4M72AKsO8YM4RPUD2JbyuShU9u6TMvAneFbvRkVi87KH0u/m3tjxEsnK98smvPGbipDwcCw8579cUO9jhzruMVaQ8nEPkOhzux7yR8ZE70zviPGhOMDzu0XE6wwvEOwobabwHmli8AlZevakaq7tATOk88dg2vFtc1bw0adQ8hmKdO3FRiDukwF881nulPPO0l7oCo8O8NIVNPXqL3zosb7W81xGxO8nIDD3/dCa9DpsaPU8VertpQWs9vLSdPIi4QLsj8xM9AB8WPZ5EI7yB2N47a9JwvFGx2Dz91SS901Kiu7jYeb1ae4s8IpiCvcGB97wPNPw7ip0jvJSWTrzj6OG8kJRZvAw2Tb04OBk8SOW9PEbZszxe83W6AdcPPaYZWzxZieE8zEk6PDHejToC/bC8ofSZvS8AmDwUB0+7N0ZpPQquZ73zMcY8gyzdvGv4Bji9N868MKwlPN0AP7qPdM48bc2NOy1AYjz59BU9UgJ1POqicLsqqBE9eh9Ju6qpQTzClxO8l7qZvP48r73tCaQ8rCwGvVpcrTxvxlM951sZvdHqzjwRSyi7ntRXPBfxCr0YFIw6QUGZOwIeKD3ckHs9RgAXPN+SJrzJL4I9hxo1u76OrrqfVlA782ZePFtqqDxR8YO8E3g5u2MOXT3/pjw9V+RVPCLGBTxxXMu7AsfyPNuqaryZ6oA7aMBOvBVrjryYqMO7azgUOkDOg7yOSeK77QEcO8HpU7wpSZW8xrUNO0tpUDyhNgM9TQG9O++nCLxMyBu6rMxiPRMJzTwp5Oq8LaWDum2Wb7yYVSK8RLNCvfJHqDp/ZR29W2qFvJKPKz2VZek8AJPIvL31+bxpkua8tWtZvcIN4bx68xa8PovwvONMijyLwyE7TjOavNmuMz1TkBY83JwUO1OpPj28RhY9lPyovEamWTyrRq28dNElvWFVYD2NPjg9makTvZC+ADyzIkK9U3/BPOCfzrtoLt+7hg/tPKccp7tG1VS8T6naPCAXBbytQrk8uhvFu1d8xjx9CZg81oqJPAhCDL2nW0Q9rEiFuw9UUT1Aj4e8UVXuu9ps5Lv9Zwo9HSoUvHHDOTzXfDm9s++bvOeNyjtoVAu8ch1yvTOEdTwxcPe8JLthPfkbobuhdoY9T4ehPCjwYjyJI1m8Wdg2u32FXzzWsmO9d/vvPLEACL1EUOG7UXmgvWB+YDzxVLU8xYUPPNv3ITyQria8z7uiO99zET1ZbUC8ADt3PAHysDzrKMy7Pt7zOzqg4TulrWG8LGSRPTlpRLx3TU09tCoBPUAObr2kWQA81Wf5PIuUyDx5LdK8GPsDPC80DL1RkPK89RnSuy63xDt/EUE9pXAyPO2HAT2pmQy9c2kHvRudXrzLqlI9pjcdvYpOOr1+t966jroPPRn6P71g+eC7orkfveF9Lj0GjKs8p2AKPKlLcbrKftG7H52SOxnYlryNCM+8fzkCveGRWzqXhrm8847WPMmHeL10j4s8uf6EPN/nEz24P+W72awxvaWB17zQzgg9nYMLvFJ+PryTS4i8KKKkupBIxLvOqji9v+uLvDL+9TxJfy49w+RBu9CibLyGhCM9Y4yeu8TQCr30qki75tCoPMeiOz0p0168P76FPEwCFLxnpAk9tngAPMlTAjxrsOi88+gTvPkdFrx+p9a9EsDQPPv7N7h5v727XxUovPtQkzqNBvM7EiIbvUn0hjvseW07TJqMOneVML0DTXq72FUYvQH4Kjz7XR49pEDSPFFQHrxHq368Fk6FvEbrKjzAHp28ewJ8vDVclb3aUsm8Fmu5vOf/fby8ChI91UUhvUYAHr0GTpE8bPLovODilbuvy6w7CZErOh/wt7wVIt08yN8zPeNg7ry4xP272pmGPQpgwLtkp+28/yPVPJYRoDxuZ+y8F6v4O70I4Dy7Tww8ZnyIPG29oDwGCBE97pr3PFUhGb3h+ug8qLT7PC3X6jxikIK9L1jZPBamNDwNggm9hFkUPTiKuLx17qk8zPSBPOZlbry+blM8ySEAPDR2CzzIuni8wiJSPAh20Tz5sV89lakAvSXcJz3mxVk9vz0cPa3CyDwZqb892Ov1PPUiDb1dvY08E7DFPKh/9rsPiCk8CcTcO96hHT0XGFs9hZzsPDleBD0HPvM8k7Z6PVRI4DwTR/w80M8RPcdtf73AHS29R4xDPdhm0jy1r1k9DgWLPeTAMrsW5v48h2X0PWfRt7wSn0M87/3Luxds1rvpUfq7fYQEuDllFD0H9oi8AqCyPFKqZrx7m688Vn4UPRGCCjwosvg7zvrvulAYhLzKTg09bdlWvapBiTzqh6w89CCJvD7OAz211tw800AYveU+gTycI2c8cp2rvF5qjTxE/rY8J4invDyCa72990c8dausvILYSr15sy68pe6MvewGGbxrEjU9beOovdMDYzyCJNi8cCw8vJNa1bxeE5w8fdZTOUdVtryw3oa87opDvLaiCz1b9tK8feCAPG4FKjyXs2y9juGyvLzb6zwZYYY9Tt1RPaEGjLvDyT27ouvWvDVAHr3W7+o8ZM7fu3eUnzyNsJK7UTmnPGH55TzDxQ27Hp2ou0lTkry2kn89RFJyveG1BL3hSaY8UXiGO6jeiT3p4zM91QdwPQrCCbwmKho7bq8LPMa7Pz1XV1U9vkr0PPo0Grw7wKE7ec9gvAm5NrxZU3I5TlnyvJHzCD0d51u7YggaPW29ibxC8zC9FZZLvKc2Brnw/hQ9hNsXPYo0Vz0VmXg95Xq1PP6bgzsZC2C8jCoePfhQZbwclgK9tkoNPYGP7Tyw0DI9nIemvIM7ED3jrzk8a/mJu3xbsLxwhf28PQkUvVAxLD381iK9f8O/PGgjkru7knE7bvZTOynhfbuz5QQ9kGipPEQXPjqeMSK9iaBTvQ9SZD3qzOy89yQ6vaCJCj33vTG9mTa5PIvX5jwHJQQ88pnuPK3EJL3KiRC9fc2iuymqJjowvOe60mNsPCoLrLxMLH69bi5PPMbfxLuEAso8IrF9PXfvRzsa45E8oGrSvNms4Dx+Oy88uDsDPA==","bias":"b3YdO+knTDzUpJo8AAAAAAAAAACtw/W3q5oFPbXNvzq0dZk8HOEMO4EiwLmT1ZY9p5ToOvh5kT2gGxO7LMAqPU6z6joGS1q6Om/yO//CLjy8WzQ93pOdPC57bLpbfe07ZfLxPNrtWDyGXY67AAAAAEOc3TxY6vY85DGRPHhAXTz/Mi07WQA0OQAAAADmxVY8Pw3vN2Q4hD2QOQA8AAAAAOz3ijyeHAI7dYNGu8U/JDxErbo9uX0APISx0rtvGkg9fPdIPFIGVTzrMak8TgnTO3M+IT0YMbc8EDctuiiSzDwAAAAAsIa8PYY8crvjuIk86WqfPFt9GzzPdes6mZ+iPOxtIDtdlkK2CI4ANoo55DwAAAAAFp9jPKgJbTzJxig8ZJYQPMsxSj3E8YY9KOSXNwAAAAAAAAAAP9ECPaPkjj2WBgY7gbiqPLLcAT2o/eC6Axs/PbtHsTsCINU8Dg1uPQAAAACl6Yc8AAAAAP/zhjwR2Sw9gxzVO5Z2Ij2gxDQ9v4wHPaQkwjsVb+G6h8OrOgAAAABCdfc75QeTPRrnMzyZ7Ka75H3fuwAAAACEgJ88f0IZPPPDUj3ZfPi5kFk4PAAAAACsm8M8AAAAABr2Vz3HP2s7AAAAAIGBzDsoPKA7XM00OzhqXjzlRWo9AAAAANT+17u3o5o5KggPPTw6kTw="},{"type":"relu"},{"type":"linear","in":128,"out":128,"weights":"pbboPMvgJ723t7U8TZBnPPp0Qj19J1e9szTXOr+nhD136Z28zmM9vLXJWT0vl7E9Lg+IO6XcjrzjAZO8dzTnu8z6sbyAxcC8fWlOPIrdQztWhiU9VuKLvFVwD73OuSA97V4jvCQE8rwBceu7TdEkPKCevru1L727LakhPa5G/DwFCiC8GoIYOaFLA73kukC8cEVvPEanWD1M43E8eV8DuzHO7rquqT08H34Avdj1RTy4O9c89ircvBcXKzzXQ7O8QDyuPCcdt7xJ05i7g1h3PUMzabohQiA9Wi2VvGrYDDznMGG9Ngm9PAVLBb2aw488UBmIvTzUJL3OWh47qQHJO86XNL0SjT+8VlCbPYZ5FD0Le6o7E6OovedXDb298dk8ENh6PN4KAjyVE+E8PataOw2u0Dyb2lW9XZGuPZHGYDsgnJe8x1l0PVD1uDyxJ+s8O24LvAQRRroK8y899f+svCfOxLv134Q8gMIFvIhUhrz/7BC9HcJXPNrqT7ygs/I8w3oNPMeySbzmrSy9x6I4O4L0D7wY+I89v6uLPREHaT3T39q8xjwmvdu+17uDQMm8eb06PW/lKDwoyTy8HKxMvPlLGD0TkFW8jlVvPJ/X+rzxuLa7RIecvOuCrzur2hs8FjcRPT4CLzwZNOk7qhYevQ2zwLzGI0m82T2TO9xOx7z2jgE9V9olPdpt4rsWrWq8BRHduwD1jbr+VfE84ZY8vVSadDx8z1+9nQ2tOrr5iD3H/v68wotoPfzcQrwdIfw7RKRWPa0z3zwD8bs8TqSpu0XawzzDxbY7pqFdPBW/Gr2h5vM8j/uwuIgkKL2eA0w9j4NEPbimLLy1k/m89ZAcvPJ8tbxnfoe8LGI1vZXvTrx3HQI7lvwMPR8Ei71d84A41w4pvXr5/by4fR28iwtwvCErkT2Qu8I8i3ANvAni6Dzyi4I95GB3PaueLz3t2Gi8G4mAPcU/QT1YvXe8kGGFPXtNlrt5i509xB9zvAWzMry8MoI7osMbPLkQ+jxCoxm8JZcFvI5nhDyCdmC8wX+IPS7YML2dxM09doS6OzI/0TxvwHg9dON5PS91jzxJtCC8fJwKO/XziTwzQnY9sRCOPUZxMz2AXx29NE02PbfKUb0lIe08Y0zEvL3sO71Kom49hVhaugrHojy2VUC9CnbUvAM0Aj20x5m8RFtBPYn9vzxyox48qXAgvd4iHD2qAxe8kbUPveA+lTwvkJ09AgZBuyOv+zs+NSm8VoR8uz6/aL3woDK9xTboOl6zADySGV492wefu810srvRpQk9uFeEPIbz7jxVNVM8cEwXva0a5TtUvk48GwHqvJTGsTtYSxu9SK86PW70gD1+rz09TstmPXPNIr0ABVM9roaNPSGSRT0zReW8kNEEPQsBVz3B+Ak9p52QPJ7bGDugYIq8Ez7lPbaIGLuFEwE+GOgAPaNQhD2+6su72Rz9u826tDx78xI9ff12PWFD6zoh74i6vpdbOwEnoDuf7Vq9r5uXPE/IiTw4htK5zSecPf4PBDxGSTc9xwk3PL6tVjxSsws9/IIbPTg2Wjo6djk96PQdvTzAvTvP5WI9X+8QPZvcxrm/ePg8m+sVPtc7Yj2V+6e88YqhPeY+/DyzTde8xAFGu81HKz3b/2g9pvPTPOXaWDsF/5892gFCO3IHIz68Ueu7iFLGvFWabDwgbhK9njAevCCZXj2e6nA9QxacPFfjxjty7B877In0vJZTWT0EPgU97wnFuybLtzwhZ+Y98VT9PYwU5jp+UOU7pzcdPeCPnz3ep609qQU/vS/wP72OnNO8lzWJvSLyWj1TXw88TL2DPJVZpj05yls8dNNuPHAiNL0wv4g9VyjKPbN2aLyt2s89fKqIPdEh5DwFbzO8lCtjvajwJ7wFzkO9lHc5PXag5D0U0zG9LaObPMeVSb32z547/BkCPTlTJzyBSzY90pyDu74sxzvBgvw6OzSRPbmFUD18bNg9ipO5udvFtrwEQYC6JWyEPDROS70/5ru8MUkcPp0bGL2sH1e8y9WsvB1klz1+D1c8A7odvO0oOr1fm5Y8VbMVOTX3orxxklk62FjCPAg1Nb3IbT69Orz6vO141rygS7u99v2TvGXoCD0O4yG82D76PAO4sL366Fy7k68qPVFgQT0Eb3W8D83KvOV3PTyPrRW9mhAzvM+GTb2x4SI7aiYrORJdSD0BIjA8AE2ivFeHNbuAjh695y2HOgfE0rswaU88WZ3lPKIndr0KQSE89KC1PMqBE73O7mk9CW6xvKmelz2CIME8Y0buPCUWBTw5nPg8VQ7/vFKGxrzujXG9UJmFPLPlrrxqLrk8hAWTPHMLJb2by6w8EFn/Owgvxjtv3GI8589PupR1vjnF8gE9jyX1vIkXFL3daru88vz+PFi0HrwQ2ms9DtK9vaPNr7wXwFu8xEcFPH2wJD3Szbe73YL6vKtQzjxB1D49hmidvdO8jjzT6xE8H0XNvF59arzkdg48zR9dOv9V9buZzg+9Q3IMPC7Ko7ydzik7/L6QvGeNwzui3rc8oubmO9W9oTz96iq9vxhkPBRTDjxQlpq8zX2ju/NlrL3HmBg7vedKvB63i73DLng8b/CdvKsyBzzRju67WYhsPKGuIztTbw+8DxdxPCkfzDyFu4u9+RswOgOYk7zW0Qi9WwYgPSE96zzAy/+8hgwKvcwayDyWopu8ImwjvJJIc71uyYq7XwkLPdLDZbzOrXy7Om5gPS0Z7jw5Yy49+ZCZPJ3XEj0ymgu9KY/IvEjOEr3DR4o9tA6uOx+VzzwS97i8knATuXdKq73OKqk99us6u3gEMzvrSSG9gwFcOwC2vTxjM3E7OheWPE6x07x/+K085ycFPeKKjzxZCTg8tughPHQStLy1tMk8IXGNu8+D1bxpQsU8U7BGvWTbFLwlrbw8VWhJPXnEUrzhQds6wv2GPIdGwzj608C89MWbPBBFKj2RloM7NVkKPb20GT3/YiG8ovfRO6Mzkj1Hir68aaczPLkwi7z8Iy08P2DPvH/FVzzQdmE9ln++vEXh4LxfyyC923LOO0QSCL12z0u8GeY2vOJHq7xSI8s8MgJuPZBTg73Bjz28gyJyPJrL6rzzE3S7gTDmPBwfkj2odQ89Az0TvKLxcjsM2pc7zZXAPPtVEL1OFmK95zI2u+mF8Tx0hB89BntbvcPh7TpcR4+6MmUKPMIKB73u8t481OzfOsmTGT39OuI8TGEgvUxCiDxJx209rqUiueJ4/jxwkUw82013vNOR0DulQYI9F6wTPXOoNT3Cpge93nTKPAT4Dr1gq0m73aCtPLadljwleoc8FM0YPS7wX7z04M08LAn6PD+j5jsqyRO9YUCVPEHZ/zuHYuE8206SOikjlDxDUD087qKQPGDCpzzhopw9TAMQvIGUdT3c4rW9yn7qPAG5ybyUmXU9crTavEFpAT3Rg/O8/KoLvdIsxDweVtQ8WiStvBk3kz1EiCC8iC8/PYaU+by/Ou28uuUqO3us+bw5Al48ztSDvTJJqjsbioq8KHzsvG60yTtk6d27+c5dvAXZxTwrLg480Wg4PCydIj37sha7V7vMPIjZTbyaNJQ810SAPOWRhrxYOjq9hhUdvalv57zndYc8NfmGu2E/E7yrVWg8oV6xPMRVKj33UJK8VliEPI55rDyUbum8IxtoO4Uk4byTMuO7QMZMPJZOUL27/tW8JvnFvIxHLjs3wrS8W2Y1PO+z0rwOr368hUGTPNQdGjy/CpI7Vk6eupOQ9DzfXyc9eZs2vNLVsrw4H/+8HHRTPQ3E27zHEyK9pbf/O/4mAD1sMBe92Uh3u+26L71cIau84Y9GPWDkoTsINgC8uWkGOzbeCDz07E673E8RvZrbEL3HL3U93Cy7vEIDEj3eIrC8UkYePVyjqTyvMtK7ep10PVGo5LyxrOa7w+7RvOAlvrwoIDK8kD/qvBEjIbwQuEA9iY1Uvbx7Gb0qBOm8kThkvNhV9jyFlq48XdVoPCBvwzv6H5I9ScwJvVLQDL1BkU+6lQ3HO08o6bsGw828OPofvTvJB7z3TK28VbVsvBk1BL3qdiM9+bNbPCVwYT0J2X28Pa3nOuRVpjo8q8Q7KTH7u9YNorujz3C9LbjGPH0ttTyleRC96AsxvDYjjDwhcrU969cuu34fhj0t2W892f6JPQi8mLzhN4m8eY0zPfK2ZjzA1SQ8PcYNvBnYGTw6mva7bMVLPC+PZbuTKzS9V7BTPcPDVT30B149d2WQPBFHXDy6wKU8DsTRPMQmX73/co88P8/zvDUICT1WZ868Ls5PPZFHTzwkVJE61QksPQWpCDw0VCk9Xr9Du/v3J7wtuRY9LY0iPQUsXruF86E8Ur/fPGHEFD0HECg960yLOx4KoLx81wi9UJi4Oxj1Cz0UjL07/JfhOttZAb0oZDQ8df8ZPH4WTzysuM28LikHvZXfaj1aNOi8W1fcPHJbgT25Nle9eQYVPaaCOD1YoGQ9dXwDPH2QEL3oaoe94Ci/PVHzwjwG3dg88ncAPcymvzyvnF88dsBPPdu9SD06Nw89CeSVPfWkDbzPpR+8HoolO3wlxTy9IlE9ZLBxPY4pcz2NsiY9zwW2Pa+VATwjEC88cC9yPCq7ILy9nd+8mRuGPbcoYrz6FMa8p4e5O1hkv7thM9+75ntKvWVQGD3ur1M9qu0WPc26Az1nHi08S54APepp/zv3iHq7m1F9PA8fLr1IU0g7MC6APENvSj3wu+Q8HgZOPCOCQLxe34O82qJPvUVNtbxZ8A49YCQcPAsTEzym/JU9ykOEPLrpFb2A9em6ONLhutwUKT23jta833tPPBbrID37rsO8rYREO+ccdb30QsE7CYWEvZ6LQLwEt3A9PZROPP82zjwkR3m8+0GDPa2YAD3UrGM8TEfZvGu5T7wMivy8aR10vEwGxLw+FDk9Dqh2PNPulbuhNIO82mOvvURU2bz0kRY8IWcsPWLzq700h5G9ftGiPGaI1rz9Pa+7eabeuwOWID2WL2O9zsCHvI8uEzyfhDI8VxkHvZznULvXBKo8MKkLvT8RET3YBqU89+k/PGD25TwWcWK8AAu8PLvcsjviDQa9pzoQvewjDT2jLbG8fhLGu2LAnbx8G7+8z28VPS3Fhj378yI9u1gnPIk3AD2aepK7J9GivAQ5FL3alS89UKAhvHKFrLyp4+O73wgXPFbbg7zR5WI84skbPIYhIT0b4fS8HpaBubSOtzkF9jO7w4JFPWCyHz1xuTi8OSWNPOSFebqYQQc95NkKva6wEDx9RsU7wXHIO0HoiLvwqZW8ZKheOy4VKj22Lpi8exhJuxawMDxX1bC8NkDVPCE1sjx61YS9tcp9vBxqAb2QkVI8W97lPKTEtLzpOaS8TpdnO/9zL7wcyLA8r9jKPLRgwTz7QwY96WaSPNscqzyNsE28PguuvGFDyTyDBw09rZbNPOUOJ7wCNAI7XiqGO2wqGT0zljI82sjkO8qTWrxl02c8yy4QPSR54bz+XFY9nGKHvI1P5DyRm348XDUIPMdzZ7w2Bay8UiuyPMbhFrzoRvi7suEJPJlsNT3r3K07e5FVvBuCpT0pVGs8ILFHPJIrVTzHwKy8VklIvauXZLtRhwU9FMoGPFq4bbxiC5u8iz0SPWv/CLyA2nu9EgAEPJoX9TuvAxG8ZtrdPAxwHz20eF88gHAtu80Zd72rvhk827QFPY/NJD26rEU9CsA8Pc3lxTw6h6M8bKw9vLqdybx4PZC8bjfaO6/O6DwFKq+8f9jQO7DSpj1M/qq8+yHNu8LnTjxMHNM8URtyPTjkFj304e67g1vKvMyxKjxan4U8ybw/u5oQ2bw8spA9NSa+O3gEqDzUrds7AwQDvc9Q0zu0kz48aBGou3LesDvCvxy8pf+bPSw+GD33RXy8c4S5vfYpJj1zfv47oo7BvAjj6bxMeim9cSwmvdISnj2yUa09VyPnOyNpYT2g8IC9JkSqPL+irjyxks68IPvLvBYBU7vyNUW8044jPdR29TxsQk48hUANPVO4W73ZJJU9PsTzukvQrLxNNTe8+0rzvNqWQjsgY4g8MjaBvaUvGj3OaGg9aPoVvUcvRD0PMEk9TuzZPEWMRz3gpyK9oNyxPJvw27y6L6I9iCbsvP4cFb2C2Qo9S8SYPL+4eDolYok7+3KZPDHNUz3yGKm8x4mHvB+EjLw7/tG6glTsOYaaGb3JYBk8YZ0avfd0FbyVhe+7Y8Lpu1MYNT04rUs9wjEFPVRcQj31TAi8sdYtPVOykLrOEuc7dKoGPI+wI72LcJS8HmSju6OFOjyKA1+7IE3RvCbeDb2Sr8s5Bu0QvbEJDr3HXUi7ebWvO1W+y7zzgFq9YX8NPKDxyTy6SDu8AwU4vCKGjr00C+o8dnkGvSP/sDx0i4y8r3OIu1kfn7uH91y9Ku+oPcFoQb3la1g7xZrLvM4M67tZKyk9roxjvXqkd7ug0HI8epF1Oz6JPjxfUbi8T31JvVX7Hr0yHEm8j7m8PELCGzs13kQ9ivtOO3yavzv72M87RL9UvW2djTzucwi9sSQ0vOMwjz0a0xe94yV0O077Djwa/307Lly6OZugiLwu8HM9ekR3veku/LyTRzQ9/umGPN2vubxyrdu8scLzu8BBoz1TzoE8zZH2vH0M7jsN6Jm89TE4PXp7EDxlUhs918yZO75lej3Bq0w8XXEHPEOL+rwZqkq83jdAPBBAa7wM1Zg9+7DAuUYiu7w/R/U88iCCvIujSDzNJwu7//ewvHHNKj2rdTM7ZgYGPRjHJbyo/C29cckYvYK0ebxkjLS7YvokO4u8gzw+xxi9r6zhO/YkFr08Dai8tJydPTKJHD3z4DW8DCtcPfoELT3qPto8nVc0PSNC/7tPe3W7oUbWvJ4jjzw6RRq9+I53vL+TYDwXQXm85JgpPEecXj3JGvK8fHosPRlbqbxo+uW8L/jaO9zl+zxUZ6+8LE2zvBARWLwTKLK8vEG1O3V+sLw6Fvq7Sw8uPKvoTbzJzQ09WQCpvH+lvbwLb3o9twk5PZrJCTvQCMw88LckPPjzgbznHaY8JIUVPCCnGj2QkWK9alHGPJK5nTud+qi8nlVXvEgISLwFmyK9ycKNvIlXwDxRMTu93sI4vN1Nkb2E8I28R0I+PC5ixbrJQKI6oGUJvfQUjDzI9t28PeDdPKNa0DvqtEO8By82PT9YQrzn8/g8S7hBOxqsxLn1EvY8Y3VXPObLX7mfpn27IibPO8g9KDth6yG8Y5P+vCkmn73XqmK7CVTvu099FD0HKV08gUwMPe2DVT1zkVG7EErQvNHnxjwpS5K8VzgBvGgRLz1KV4U8M6UGPdeTJb0D/ZE6b7kJPaaIHb0D5bw7ep5HPMu2jb29aEQ9obquvILlirtLm0496n9dvS15ZTy6cVu8yPa1Osf0yby6+ic9dtAJvd8iLjyG04U8Bm8vu3LiBLwi5QG8kyD8PArNWDyCyBq7buYGvXqTnzvBL4A8WFuJusNEMT3b6mq9ImeaPdbksLsAqQu93vdVvY0/4TxngI08TWa+u7gXsrp5Iao7yR4cvAhcDj00rK885y9pu0l6Qr1Y7io91NdovC4q97xV9R89l/OMPKwTd70OvUu98ygsvKCPGL1JvpK7MAmhPZKKtz1hWKC5VTDOPJ0h5TwGVzK74No0vUUbBT1z8qa7o01qPL0GsDwAWKi88tdTPUCxJDu37Ao83z9KvDTJsDwOSf88/TpOvCMRkzy5VVG8oewQvYWFFrymN5g8/W2KPEi5Cj09CZm8Gsr/u2alIjsSg6U8CtpRu5fnxbzveD29JxIXPXN+Bj0iFKG8Pc43PdJckbru7Go8I/UcPfVnZrxZK668HVtUvQWCJzymLGM8x6ffPAKMnzx61Zo7uWMYPRtM+bz3bUc8XDyCPCxd3LpiIWM9r81fPGRsLT3HF+g8GVqhu2Rddz2Z2Qo9to8wO3DzMbpHfvu80CAPuzCK2bup7/g7jXgvvB/LkDxA+MS6yJ46vX9xZbwltNS83SAbvenA6LvcpOU8Q7MEvTNIa71s2l67FVm5PUx5jbzC2g48O0Q2vAec2jzDJT09Gm2Ju+XTFD2EaAO9qsIAPE5GGr31ugI8QSaSvP7h/ztkpAe9oFgAPN2tgDv8EYe8AK2qvMyyD72hfTm8PqlQPEPku7oCKcs7gQAgPXxVHLzdCIE8JBPSPPu2hDyqJUo8K3+EPN3kcz1UAQo8IP8vvDqQmDzdIKM91U4yPTohAT06ido8Hev5PDxoOzve2LU8W8LUPFrBQzw7ZZk9uHRHvCgwLz2+E4s9heOSPb/cAzz0zYi7pN1BvQEwwTuO/qM9jAMVvU1UIL33cvU8gvSpPJnBXb1v57k7Rrs0PJQFjryro/Y840MgvevgGD19HBw8FV2nvDiOKb29avU8EYRvukuFWLtybeA7hujSOWW80zxqIrG8pZi6uzSE8TwjHhE8A7TePIIofj2xvCK83C04Pe2ssr0VuhG8nDjePO02Bb3HPSU9syRQvfUWNj2K83O8e3T2vHiTDrujEPK7kcqEvBu6Cr2/niW80yYtPYK/Cz2kQZA9+LyRvKUaJryUnRu8pnKxPJKhEj3RYVs92RjUPCmzKTxPRCo94aU/u9vfH70qURI93BnZPEEqhjum3Q49d1UdvJxK3Dut8gM9ajavPNuWPz2POtY88CnaPOLKkL3Lchg9DDk/vQImc7pHBp89uyivPBDGP70mxU49zNuFvJYklbtmJl87UNHHPPdtSz2DXnS7oWcfPY+c27yoofQ8s92WvN1jID01AoC823NTvO2qNT21wQi9vFj9vAnzhjxIKKM8uopPvAzSfjl0F4M9jgM/vPcRO7uwmII7w2N8vCNEAbwX/HE8VWbevK0yCj0MveC8I+aHu+wd4zx8T8Q9PcJWvQV+dTxVdJs9YlJOutuFCT11kXA893o0vV2rOzyHmgy9aLc2OxEllL0dplY9gziUvYKs3LxGipA9ILMXPbPTLry0o+O7mOAuPB+vwD3Y8Y+8ISLtO2QfuLycZGe8d1WWPNw6brvW2cW86lgKvfzjrLziY6s7kvILvSgiIry42ry866XzPGciabto5PO7KUwNPKgrDj1K90m94u/9O+u9pz1jaY85WP9pPbHeCb0oNze9llYQvWEXJj1E2Rq9IR7GvDmtkjxqqUY7Qy6RPFDGUDwUcn08+8VevOvU+DvVnq+8nSfvu/ImoTzMr968Y8+QO6rDOL2ALo88yf0ZPba/PD3euP08mbD7POM5sDy8Pua8jRk2PZgs4LylrEw9GNtnPIf4lTzB5xy921Y8PaB8LzwEgD29Yf+IvMTAJL0PfZ+8Z7clPShgmT1RjAK9wTeHPVgpOjz0n/I8AfCovY88V7wFfBU9VjW7vFa4rzw8C6E7W/C0PMhLizyvqlq8kw68vIJwK7s49wA9STD5Ow/HpLwbDvQ91z9CvTKivbzKbIQ8k9bPvAiFATubrFC8nncbvd58zjt56Au9vOT2uyriuTzpEwq9IJp2POHbED2mBec85ZjXPLrF+rujeAq92rglO4UOWDxfwX28Sz30vDnOJD21agC9Jnr8PDTpWryPElC9fQyUPchtkTzM1S09MqknvXLpEzwBb5g7QYy1vBM+TT1jLme9w9+3PBQxOL3YBEO9EXVJvVaUHT1vWmm8WcumvFz05bz0oe+8BlWivEgN6ryYlpW7W0o0vMcelr3Yq6m85HAqPacKgLwvpzM76hD7vDb8trzzgYK8lQg0vU0X67tKzUu9/Ov9PBc1Q72HAIg8SoB/PeVWQr2c3L08IzbJO6ojwDwwEhw7AIk2vM4LNrwTLh89JYN5vUYRJD3lcbc4ixvjvKJvQbo/WA09ome2POpScT3Vor+8I+F0vW6soLw3Jtq7q8KEvP49Oz1ni6E9bMSHO1x8Tb3m4FU9HLTfOxGX7rot/7Q8y6MBPBQm/DsGXdo8DjyiPLRs0zvcqYw9Aiu+vS8ihLzWSm28f7ufPIvugDyqGbc843JyvfUvILxxpKo8+IJsPIDOcLworwk9XHuOPeH8b70ZGSQ91pikOzpW7LxQWoc8IsLKu0K4hD0WpxC90WLXPLB5+bylss87KmSxPDY0lbslCAw9ykuxvOLEJj3XI5a89wPcvKvc27tp7z88YImyvCZ/qTxw0467mRlIPPgWNL07Gha97R2AO50TB73E7M+7FvBePOagMT1r2kg9GfOmPP3Qx7zEC1o8jMWavCInVjypiw696kQYPTpwFzyIeEC83BU0veAsrTuFD5u8KP6PO8LFyLxGD5+89CF+PEPgKD2CKyi9xZsSvIvyDDxj1/y7iVaFvKBHfT10vee8h2v9Oz41kbycwsO7CLuSveDNwDxG1Rm8bjcDvWHPPz21MTq8Q7mvvPrW6Lx9Mu088/4Nuz3uSbwxKi+9m872vEfB7zvBqXC7duKBvZuj77yX9HY7qaWePcXv0bxlzY69NWSjPIi7jrz5xC69wCJjPFbsI7yF2AK9n6ItvUmK3Lsm4uS5Q+pmvYZO2TzDXSi917MfPXq64jvvaQ28cpnmOziMqrywqqO7wfQ9PZQ2pbzj+6888F71vGRmbLveI9Q8AAsgvX775js7TYq94U4ZvSUYf7z4IcA8kG+XPMZx+bwWI+S7vZ0nO1iOTL1Kmx48HJsZPbZwDD23BKq8YBd6vOO7/rxkgJK8Lz8svOHWjjymrg66k978vIC3sDxfu788NrquvKOsKrzKQse7nVtWvfpGijoLs4w86/5iPe6iNTsfGz28QOzyu9m7ezyMaKs8gVPrvCGVODuOf4g8A2iBvZ9+HD2Y+hi8zDK+PJCwjLtAWSi8SAGpu/orvDtC/r08GMkwvEZlFb1TI8O8a6QDvVOPozwTVgG9WUYvPYyDkTqEt7S7BdEkPW/NPLwiOz68/SGpPDt4nzzhZQG8AjuSPTEHBj3nvh+9DjYAvGiljT0uSYE7AbSBPcFXjz2hGUc98mNmPQrtljwoX2S83kVNPUqKvbpaH988VzKNPKEI0bwx5ia8oaLNuyXtLDwnDRs9+ACDPEQshj3YnSo9QuBdvBDLnrz7Zeg6eq2NvGeJ1zror7E8T8EjPYUX2zw8MbW8kKPLvDmdIb2tml69CuOWu36AYz0wtaq7GbhNuqjwtj0iWc28I8QZvJaAArvU99u8vWt+PZb7RjxmYxc9hEpcvOuaYj0nCfM9OfjZvDfyC7tziig7aN5wPMS/IL3lZLo86Y3OPDv3mbzAuIy9alEAvK+mTryBHiA9DiL3u7RS8bwinw09HMYiPctTgT12iTw69T7+PAEscTzNKty8g2s6PX5Cujyf+Ck65fpyPTSQabx9BS89CQoVvZcLjTyW+kk8a4r6vD+sBr2NyMk799+5PPm3DDwbgRa9oDHJu62LTj3fW4u8Kw4JPZQnT73UGAA8pamfPNA8Ij3jzwY90TPPvAjfLr1VsOM8WuCNu7Kctbumdy28MaEtPWamDDkx2Cs9Dw6FvW18CT3GL4a8HgPMPJyRELtYSUC7er21PMNz6DsulR+9YDQvu7SbHz2TNjE8cPuQOyk0Mbvc9Gs9VEjFvBzCiD0Kdsm8vySDvAaTvjxNGAM9stkYPfDJoT3PfHQ8gkYhPLVfUzwIPke5td1qPQS8RT2s7OA9DyNyO+Cw3DwugXu87QVMvcIrpjtcDsK7yB2fPbgzjL356Gm9QD5KPR7gFj0wT7S9T8hau8l60jz1mxu90ToivRlMTz0wUii7DuuNvIncUT2Dhzg9MUA+PDok8rrbNZs9dkcgPaSV3bv0N5o9lh1JPeEGjLxBRTk9ZEkfPl+YrDwK+9y8RSW7uudrIzzmBFK8aFCFvGgcVTw9syU9CdunPawif7yEoT08E71IPAWd0j3v4mw8ANInOq61RDyIAmy9384FPUH0WT1Qx3+8j2icvb37VbzN6aE8z4r4O9fi1TwFV7U8eGPVPfHFkDw0CpA8wMCGPbRJW73bsNE8Z2eIvEnMiDw319M8BrKOPOYGZD1vH3g9ljV0PNcCzTxSHCw7jFl2PcYGAz7bRXO9oevEPXFF0TyDZA09T1UGPbc8UrweKAO9IehjvAu65z0s0i89zoa8PEuRYTwnS2C9y6iqPKP3gD0FPlk9GPPWvG/kTDz5Foq7xdKCPFV1GrwLA4M9iqenO/T1hr1RxCE99NbbPcUtvrxV56I9ooSGvMeOT7zeTkI9z9agPFlzZT0IuAC8D44CPnYMzbqlKlc9JQRqPTU/lT38CFu8uhf1uw9Tybx/gqs8HiOePOBRjbwpCAA9bNZxvFYNbj1eP848X71RPXS3j7wm9Py8xnVQvcxBkDyC2PO8MRIvPU1zAzzzuNc8sYQNvcMsbLwfE747wPDOPERDDb27pmg8N62+vPvb7jwp1Ca7sJmbux70gTw3Vxk9QQnbuv/BJz1lm9y8YbZNPFYb8LxBRw48eFa9vKylvTqmg7s8l3PKvAAKQb3q7Nq6y6ehPB5WPjybx+a82rfsPCHkjrtdtp88i36/vJTzijzEQRs9UVd3vD0gDbyXVbw8/jugPHEOUzx1cp45awNAvcQBdjsMHA69L9CfO76mir0hn0A9+eRxPeF1iDyuEbC8xYCsu/LU5Dymob88DLyivMGvHj3JpNA8rJqJPLYBCLwaWEI24yuPvBkKGDynHIO8uF0VPdc+WTszryE8MQlOPObiWzzO5h69DxwjPeG8vDvbTGC8zzzivHPIiLwPi3G8VVuBO2XWxLyOkWI7KBgBPAEzsbzA3oE99FQ6u1eaVzywA947t4W7ur/1vzwfVTU9/N4eu6eOtbwFp5k8OvR3vSNjATz8WIi7Dd5KPNhAOr398iG8Ua3zvMiCVbyyc6U8rdxDu7oGibx+JRo9aPJKOxs2bL3AlOe8Ch5nPEZYdDzv18o7XS0lPFePz7wMtBy6oycUvZFTy7yuC828t6K7vEg9CLxxZKK71Ia0vMGYCT2EcT68bnFAPYa6/DwKZw290c7hPPzMJL37MDQ9YiE0PD+q5rwNc4K9mcs1vObXIL0rcgY9RkAUvdyvzLtFinU8Ml9HOtv+ATyAUum7qz6zPOq037xopos8whARvdfkqjuPUge9I/a6u6d4jjz24BU94gBavXTyurwwcey8R2gRPch207zzyak8PLJ4vG3pL72lT0Y7qsAJvbswsDy6zsY8ARchPcyl+7xYLz49SC/oPPj3Wb3LloU987ZKPdp8/by5cRo8JmkivUW2jLs9Vq47sEeTPCVqyrxE5pq6xMHkvD0CMzwqHZ88mxzgOhP2CT1+c7Q8VOcsPHd8Cz1N2Ri9sSGRulYoWb0lDV269wZnvGpnyjyrqFy8UmuevHLrT7vXY367cq95PKco17xNrTe9QQJCvShbCj0tqhq9HsBnvP1yB72789I8j/qLvHjbEz0xAK68H9EKPLZstzwmWug8S70RvW4LOrzZbCC7qa9fvUKgqjzw5jg8qVBzPJSzKr0OXbw7zg5QPCJA+Dw67H68RdOiPGgFbj0j+Fa8AhRIvKfWILyc5Da9S48zvDErRT1qKuO8CJDCuziTET0vS4g8UdrZO/hkJrzq4Ga7xWdsOU3ZqDzcrxE74OvmPDr8Yr36zsU8jTSCvBC9MLm/N9C7mo93PDKBaLsrlpc8/7rDvCf7GjysIhU91PQnPQqrMbwmd4o7C10AvNwfb7t5O+U7lakXPZLsrTxUpSs9JuE4PVGYHr0LLR08ABvKvNLXFr1QoAK9I1jGvKoqgj3FAC08Hzq2uy7lR7oDr0285QIkPOmb9LuOPjm9QLSGvCxYyz3l4Jk85v43O8pgojyn3BW92vIcu1pt1Txgs2e91/DAvAm4QbwI0je8206avMpcGTxX0PY8D0K/PKJ4+Dw42RM9q4dsu494+zpPKCu7skRdPCZXJbzt0Di8t3xNPQcaCbxF7jq90+52u63BZTxO6M67J4oxO2JLFT1BRoS8QG2ru0IRqLwd4bI7tNBdu7bjwrxHqCM7SaFJPXYiU72Ym/68MAKiPOMlJb3H8ms9LpgxvfHaGr26TRi8G9wCPaEleTzf/aI8ErcXPNV4GD31wj+9oNOiuX7eMT1FF/28cPAlt+N0FD35XBU9KHmQOn0lXz3d7fg8ZTchPdpmE70zjdK8B/myvH27VT0y74q9RiVtvcdPDT2trSu6HiqxvXrQNLyKtgu8q8sVPUGeZ70DhE+8EO4APbnVAT2xcdi8myZ3vD/NLr0drCs93Yc+vBM/Gj14edc8eK3jvGLVc7sC4c08eT0FPEabOD0LtAM9GQIlPI+moTxBvI28VCSJvPiGlTzyPys8S3QBvc8y17poDbm8Q0J6vDocHT1sYti85yWWvDw0jTxRG2w7aZq7O9SyJ70C2bg35lkfvIAQurzRG368jHnyu7W90jxVuGM9m82JO0hPND0xYpI7hqAsvUiBNzv0jhw9F7EqParexryTQoc9/CajvFhapbwk02e8QHMxPegfUDwzfOM85OWBvVvTHbk6Qw27ojKvPMw+R7yIUxM91TyavD8vIL1ykTy98K8bPRskvzxhdq28AEYIPb+zc7tIrv66QKoovUu4bryLy5k7t4/sO7oxb7wSEPc870IzPTS+tLybx1Q8eqQvvfeLWzwY5tm8VwVMu0TV1ztn17i7oeQBPdLnrLwZnka84tM4PKhtBToDmRU81diBuzd2r7yy3q08IbB1O1Tr4TxdSiQ9OAcJvIBCnbyeTD68cYONvB97Zb0bZUk9FaZdPE7jjT30fGm8dFucPGZDHDzHsuw4FK71PD1m9DqHQW250QfPO127gL1espu8RLygvGVjSj1t55g8FHjHPJKIojyHy3272q5NPRnujLtSMCC92g2jPAmoEj0dPps7HTVJPMOt9TwNQTw9cV6bPJw7Tj2C0SY8TFt/PfJBGr2wOe88srYlPNjsrDsT+Q+91uoGPWBiebvamte8y12GvBfPmbuNAJ07P+rCvBivyrwHkGI8Ho9dudG6bz3iZim81hW/PH+RVT07OYe7SEf4PJ7XKTwQO1w7GkZFPVT93LxBEn+8fXNKvdUS1boJafc8VuGzu0D30DyaIqW8oDsOPeHf2bozt0K8zitJPWp2sTpYyJU8Am+vOxc3tDz2Ua47FnIGvUh7IzxxKnw87tpSPBYQn7s2RV09FA2dvGkHrztaVwE8PNTyvCUgBb1Ec6s8o4GuPDozvzvo9jW95qPbu/RyCDwqc6E88JkTPQgubDxGivE8LzNLPW5Hhr1lX/g85vgzvAsQgDyJ0v47SZDjvASqxrz8BGg8M21huyGfujxW5hm84taBPTCjt7uKLXs9BHClvMfSkTwPhQs9SbITvXgp1rxhPVY8CjQNPeWrJz0W0Y08Ya4BPaymA72dzyy8B8YwPV/aabyLkbW7ISpGvbXjfLvu8zS9U4RDPHK7Mz3I7Sw803jQOwM3JryQFo4855P4vDtKQLz4PII9tSIUvZAbdryKOx69WeAVPSKMubsMkhC9lOwNvZo+CD2p0qk88ubGPIS2E7pkhtw8mPsfPVL+pjwIgje9WLtivQaGJ73QFhE8xistvZny9bzcoAM7UaTGvM0gE70f3+k8lwd2PPxIvzwZ0988gTctPU+i17kiPpy7X21MvZdc3bvtpIi8xvf4POCbojzhXi49VnsCPcb+ED2DhSU8l+4jPGFHLrydRVu5sFHevOeFjzxQBQa7ik2CvaWMnr2xdaq8v8scurnBDrxYIy89PLuNvIM4A72D/DY8a0bsPGGJZD1/h+a8HoqYPPx6/ry5qjE96OUQPXfxW7zIsQI8hggpvPk6w7upyiW8AxSQvI4TFDyCAAI8zxPXO1axLD0dSck8EFQvvCiKgb3D+ZK8LV//u3XzObyLjL68FOwEvERWXDvQojC8xjupPO8Kabtdmqm8gMIdvR8ArDoyA4G6QAY8veqhRL0Ccwa9Q7nmPMDeP72qpig9BbqPvMsv4TxWPbu8fQHaPH2Z5bqj1r+7AOlpveCagjw1LDy9TBQrvB+yYzz4Ckw7SX5aPPDhxTtYAQi6gXmBvESECD31NvM8GAE6vDZS2bzmip47ubu4vMLdijz7k9c8buaSPAzBYz0x8oI8DsD+vBn1fLynW787Ys6YPaKgljo/2928elBuPXeflrs5v7c8gj4IPRHt7bzK4c+8FM2WvB8O6jwEvsE8K9x3vCjudDym7FO9ipetPCCtVTzZNPQ7UAAtvU+aVruu/gC9QB4oPQ0Vq7sh8Hk4WPaMu0g/Yjuy/ok6fTXrPMxZ4LwxcRY9UdZpvEMTpjyOqq46fEgOPXWbHrsBmVW9+V0SvCFe97tbQyM9R45UvLZnLzwjlPg80y+UvNtB9jwa89I7++eTvFeDrzvGb+g87FygPc0nF7xSsAQ+es0oPEgZEbz531k9kaHnvFQn3z3SPJm9BB0jPWVJQb2k1Ji7YNWSO+q+2rw1dL68Jx2HPfGpiLw1ucq8btI6Pb+9Wj0i+Q09ymLKPKi9gD0a2SA9b3SavDWkaT3D11a8Ume5vERtQLzHhJc6VVgrPFJjRD0mfpI8Amt6uzDiGb06Sgm8+68PvXFjVLxxCAs+uk6VvEuAQLwOt9M9TUeZPE16Bz1vcBM9qhNMvRnpxD0S22y8bqt7u0FywTw65Fm9UQZ0PfTbnbwSZBW8gIl+PMMaJr3bxr08rKE+vXvFX7yqj6m8ea6WvEDdKDzq89E8yY9nPAY+mjwFMWo8BDgTPdtZvz28GtI9kbQDvNvydLxZF268hayNPeyA5z0pJGE9qu9fvRlIljy2uEc558sAPYJYirwACXo97bOzPbTsvLuHWBq9RreyutnnnbxjATk9oKjDPK0A+T0wMMM9a9d7PV2gKb3FLL69gOUbPbmVhjvB13K8WfQWPpZdQb0s39i8rViovJgONz0+Qh49evhHvRa56j2hGfC6iW4wPahovLx961c9+6Q5PN4/qj2f2hK8H6qZPJIKCTyGpXe8EoFOvLi707vkDao8DIujvE2TwjtLM308bqIhu7N/urtRlpG8cDNRvUEU97pa0w28jSDXu1rJLTygMiU9nQm1PP3AJjzQqoo8uo/CvAnMgDsPMI887v8aPSMTfz03gMY7OYb7vEl8+zudPCu79HaxvNDmmD11VA49ACAbPEhxvrssYRW7fX12vGXIJL3+Jro8Ou7JO6E5Ej2nBsQ7V4Iqu4u/S7sgD0m9YreQPVMNiL1XLgq9WZ/VPKPZJL007TQ8610auhZq5Tuif887G/w/PP2qUT3+rJy7cJE/PIjzwDwXgS46lxu1vB7ts7wsUY48YojduwoKBDwJ3jK9Xq6lPZJyE73VN709ndS4PKQXGj2gmtY7Z70su+ar8DvLKXw85jzrPDCcMT0EkOy8cjPkPCsHPT1AjU09JavgvLEtmTxSU7s87fmUPFTBN73uTss8kV8+vQslgT2zojY9Cj2KPG6ZlzzpcYw8Rym+u6sSOru5u/M8RbMCvcMRST3+g2c9pSEAPZhKXT3EKhs99fXwPOcbVD3wT1A7TujiO4SOWz2c2KU9FhiGuxSjKr1NSoA9MWsLPTcwhz34D0s9HhxiPJY+jrwPjdy8bBEvPYITCD3GIns8vf8ovOLedLxpCcq8D0wGvEMShL2JKOs7pnyGPY5wLLxAr7Q6SdONOynWvbxDjI88LEkHvTYYAD18yAI8ms3SOq8vYDulX6m7OzSmPBJH/rzZQM88SiNcvORXC73JkP+6RsH3vIWSc7yJcne7SoDAPGXKwzwowG88RIT6u1rfM73jzMG7iGIPvL81T7sTUHK8paJwvPYCxjzpQB29mRNsOuGYGT0ogbO84FLnvJhDwrt7KRq8eC8IPAP5JD3Wrkm7O/2KPNkWhrxuGmC8cuUWPHLFm7yjexI9bGc4vPmnh7tmGvW8Yy5HvM+X67wnxGC809dSvaDgizkLFFQ9Kw9fvZAtUz3iJ0S7rYvZPHgE7rz0RnY9BMz+vGmY4roVeD09+Z8XvZKai71hzdW6OTC1vEOg5ry8vdi8buIuvTgQKz29JxU9NOsivS2/L7sqBVe8+gsHPYIYx7zXDEY9vJYLOkBdu7xVGRK7UzaKvHeciT3hbpw7fpFjvB1uUTsiezQ9C5HmvDEKS729tyA9B9OXPD10VbxoXga7wN4HPYUCpb09HRw9kJahu9svpzyc1qS6WeS8PfrKlLwUMAc9PVSevenVuDo0RMI88Ko7vXf2dr0usEo7wjj5PBCwET28z6W8fJ0sPHbzK72qR1Y9MaGKvFvLHD1sNwG8/dgevNcmRz0JC9S8o/4ePb5qLLxTNta8E0HMvLulCj212xW7bAcsvDB/OL1RXxA94PQAPdSxHzxnW7888CbHvXgJgryY4p879iVROzNCi7xN1Ok7aKK8vNHUubv++jS9+nSHO0QvsbxRKHe8AuZqPVgqkLrZBcg8UOU8vUEmgLw9AEg9MBuJPKroBD3Blk27jn6RPHlQETwBNBq8g02dvU6XhD1Rlyo8lGvVPM1oLT0J8Hi9YimcPV0P9Txqxdo8pPcpvBD/ED3ylwQ9gpfKPHSD1zw1+2A8eleCvCvmUj2cEdE8uU/euyFOpLy750i9jKu1vOnlhb0rcHs7Kydauy8yjjv1Sei8tFgdvIsBmLzvFJw9F8Y1vQl+Br336p49GS/cu7P7l7wWq/Y8VzQ4PTTo6zyWn329yL9lPO870byGENu8xYQMvUbAmz2hwJ28dR+/PHuptzziVJY80JlJPEaFhbwDPtc79KTlOwSOSL1+6Ls88FdovBfjmjzMW9Y8twkrvZRJFb0l+1297kugPAUshz1SpAw7TiVpvf4xQT1HTBC8QiYpvbaNKL3YkjW8rlphPcjnPrxISSy98soIvMwNuLyEJus72KAHPAvLvDyIRmo9BugOvSDxPjy6UiU8vEU+vGECFbyx1c+8WV2+PULLIr36kBI94lL8PIhMKbxqr1U9psGWvR5P+zxAKkY7JJXPPJM2zDw6WdG8B3m9u+7bQz28n7g6XbX/vGVrwjy2CSu8U1ldvHwxAD1w87+8FMPyvAIzy7uVesK7z8wiPMZpwLwQYFI9FM6kPLm3Yjt3Kts79iaava6J4TyJWgC9609zPF1fFr0ynu88jkWFvGbb+LtS/zo9XXfmPL4lKr3iR7G8WKi3OzfM77tdscM84z6svLX9a70cV+K8z8K8u1OGgTxLTLM8N3MYPat92Du4Tc67r4mxPJSgVLvSW2u8p+VuvDhy3zygeTU9/94gPbLhRb1EdQU9hKwOvYQnK7x9Y4486lQkvUgtGL1HILq8GmFNPQCr+Txmf968OfZ+O56c7TrjIRQ8Yy6wvLSvLj3r5Dq8iRfBPLSgUL010jw8edZhO9sWJj33UaG9VOeGPJZmxjw3CQm8otIePXLsgD0wodY8wAfFPMQgJT1xXVU8dSoUPR8ckjw1bbG8iMMCvdleDz1HG4o8+f6pvDyDp7mvhDM9sT5TvdTa3rwvraY8uRnHPJmkEL2nWva80iehOw4oLD0fWNS4WwKPvbIx+TwJC4K6CJFjvP9MD70KbBI9Lb7uO/2FNzwoSyk829tFPODZwjyJJU496c8DvbGrG7vf9mC8xHFOPZNTEbwUqEm9CSp1uv7JtrwPGLe8JeldvGdwIr0Lb269IU9pPY4EgbuT/+i8gCeYPADJIT3ek1e9JK5ivPSK/Tst39C8sEJbPGbEGL3TIqi85hR6u0awOzzBJoU6rxmvvFAHOLzfyYS9aD6CPTMzTLxB+BO8s9D8O8EeizwP9CU8UUiovP33TL2D/7G71mfGvP2kibyxGYq5TuvjO90cHj0gMZy7tWNVveedjTwPPuI8a1hLva3bkjxOda87XC6IvJouoDvHYzs8ySaPPH0bDD0Dvyy6uen6uXkUlD30wAS95m4LvJ+GM7wgS7o8KQgHPVW+I71NdhY9LmUTvRALoD1JC6i8GvUGPfngB7xroaw8o026vITodDsWHdU5ZAYeO66uwTwO+Fy8Rw8mvHHoIr2dPpC70Yt2vKev1zxtpKI8NCe0vDo0VjyxqiA9CIHVu/BiEb22CJc9LpmGPNdTqzwOmJk9dSrGvABcEzw6CWq9rFRvPE2PPzyQlMK8nU7TvFO7trsNuuq7vOFBPdPN+LsD4qS7K4i3uzaWRb3qDnO8+y8nvQ4PazvKeIe9c0YLvYFq8zscsIG9jL1AvVy08jxIyCS9UcMMuivbEjyviAO9etZQvYHpOj3s1ou8Xv54PNomvbxhKy48zggjvQuRKr1KzwG9GbWcvAO8nLxH6ya8ZNJQPN/Fhryk0+M8FkalvFvaoDwgSSA9cRFVPbi2db1xhFI9zz9avU56LT3ZUii6IRkoPKW66ryqBeQ8y4umPOcfirytqJm8tvjQPO/a+zx6T7s8I+9AvDNi9LjyveQ8YFnMPA+BCT33YoU7+q65vD2w1Dy2pm470m6EvMOXWTwWtM+8iYCjPEVnk7wm6LI9t64RPR4s/TsZ1fS8TigZvdf/LD1VWrG6WV2jPOEnWb16zzq9ixbauiW7ebtECJK9rLntO2Zuvzy8MCi9Nl5pPZhGlT2yiB48/GZwO5csHzw4V0U95C5ivVgozbxFaqq6NwM1vfB47zyv+Yi73IiAPByUBr3TwMe8k/JeOZMbsr2PBR+90Gd2vJL/eT0CepI8rY3IPL8bAb3eEow9yfUYPbd1FT2h9vQ9frh8vYM+5LuApcC8taXwvHWxVbw1MHw8bbvnuwoFPzv4iz68oBwaPVHcbjtAs5u8FQRWPTstdLxgyc68ODoHPDaFurw4S1g7Ua0JPOa/JT10I14809LpvDFw1LseA6I9aeaqvC3uP71kamq9rYL2OeqecLuJl2K9D0xivdMzybwHKvY8pz7IO2RJgDyl4IC9/5Y7u5dgnzxiN+e8SQMAPc4lWjpCRBo9Z+dXPMys5zznbII9vNLdOmfuRzy8OQW9cbgGvZ0LwLulYCO9+YBVPTvkzrtgqhM986GSPPq0DL2YLO88Mqm2vC1uPLwP0Ug6PXTDPFX3+jyu9oY9TWpIPNPTTj0tyCC7CsgdPM0HFLytzKm8G7gtPR587Txpxto6pITIvNuhTT0qS767nqCkvJgsDTw1uaE8CeWnPOUsNj3CCQS9appavJufPT2ofYw9SR+evLXSp7s/2D69M/bNvKqi0LzlnWW7BMsUvRID3DwNFOm6ajXqu2Na3DzRLA68B68fvS1HhjtzXHw9CFgpO1e1lDxlUzC8Y1MZvPY2czyl6qK9ntsivZ4XkrwEqvK7b50tPUUdlT1FQJM8nRM9PE+3kzxiKTc9O2fIvCWlVLw54Is7kTBBPGpDZr3R9Fg8nW09vW0q4zzeP8o86SSLvestIjzqV9M73JCkvIP/0Tw4A4E99q9aPCd+8LwvyjK9GrkLvUbb/Lx4ZBE9zeQCPGLHzzqwnMo8QINeu2YodDojO9m8VK6XvIDc8jl1ERG9AxRTPTmKVDs1E5O8dM3TPB+n+byEJvc8+uNRumfZWT2pboq8JB5KvM+Z0rxLTRi95g/lO4OYA71FqTc88+GQvKsL/DzAdJu9AXIjPPEzazuYEqA5AlWfvAQrYD1AplG8S5tIPOyeI7xNFzq8Zv9fu0aDjzwvAP28rdNjvHiJLr0XWjc8lrLVvF5rqbxpKHw8AB1DOkrsNzwTbp+7ca8+PLl9YTuEEQ+9ofXPO6HcLbzlrTy8RA/+O8KZeLxvVAS9qB0TPeDSXz104zK8NJcGPbWrSjx9Eaq8nw/fvJQxvbsmkVy8BHcxvF9tjbsdFwq9XE/VPFBbD71wKdy8mrG6PF1QtTwBxC89WlBiO7VfibwjdAk9oJ+qO625irtm8dS8lfVcPE1+kr0FG7w8Do12vUA27Tw4J0G9ESqgPMzQjD3yYRG8YqVPvU92lz0YY2K8gmc3vUB8WT1yVpi9yKc4vX32I72A3Ri8Ppxhven2eTyi+g89RMoju6p/XLwcjkK9K8KuPKM2sbyq/A08QfHKPDueSDpBEJi94s7+vOGLIz1eEoc7XFYXPd+xiL3c8IS7q65UPNcVUr0s5FK8Oo05PdRKCzx8dqy7gXuzOupeED1oGii90skGPDwZ0zz/g668M3P8PIA28zpBNDw9aWLkPMe2ZzzAIj+8kk+lvD6fljuyVlM7h44qPb3JkrrpBXc8cg04PSj35Dte4rU8rzhoPYsXFjuZBz086A22PC+Y9LtZR9C8DXk1vYQGh7wfvxE99HrzPM/TQD3VPQ09iVUGvV0lN72DjYK8BN6yvBY4urxl4Ns8H1mbvLtCiTyqOyc96gIyvTVBpbzwoAY9QKvLPExTVjt9/Am9b3rxvB4/PTz4OwE9dzpnPEn+Wbsd59U7yT3IPHZdYb2UDde8MELdOU12PD2RkQI9shIHvQ1xbjmH66e8cME1vGSReTsqKgC8SXutvK6+Er3kFCO9C3p8vBNpqjv0F4s8NFXNvB41ury/nDU9495CPEE41Dw2DZK8fzC0vOGnD73sae488ZQQvRwHV70sasO8+8sYPSzQdzlymq87TC4+O/+FQrv74727/oAvvatQST1yWa67drkQPQ+TQr1dM3Q8bpoTvSzoIL3Hn+U7XCv1PEAnJD3RXCA95RwPvPO5uTzkwZe83HqMvHF10Dt0E5G7wN/KPFwIY73O2Qc9QmuTvAzwLj0z1wk9uoMPvQEICru+vaA8VAjHvAEivbwqxTG8HO+xPDbm2TyyUW681DfFPIREMj0Iq9g8bXq4vHQg2LxRfgI8QyzFPPRISDxeEES82lzsvM16GT20PKC7fwFhPVOmDr3L7yi8Xv+hvJO/Xz3wqhU9T7V3vEC6br3oggs92dwjO6J7DL01CTm99Wg0POdj5rvadTk7oYw8PMZQObwjnwm82x6YPJOTdruhnAu869SXPJq/cr0mxRY9rQ1NPLSmvbx7ycK7rQAUPTWwhTxiE1q9kxD5vDW/oTtwK1Y9Bhq5PJJK37sZ9oI8jlyquck/FrxC+jg8pJWCvSUm9jxswIA8T59mvFHh0Ly11hO95SgEPEIVkDtP/6A7RF9QPTEciL1M1a+88Yy+vBf45jz6bvy7TNjlvCNewDuIDz485HdEPUng9ztzu1a8Mcx3vGtAxrxhr148LE/HPK4x67v8eIO7IWsjPdOzKTsOJXM8ei0EvaNgk7zdKIK91YkmvWXBMzxFABg9KdoBvN1hEb1RfzY7vIwLPQyvnrtEM+A8ig/zujnzFb2e0Ny8htP4uyIViz1dwI48UEvnu0IDDjxhZtA7Zz9XvGupSrvTzPa7RCu1PPs7Pj2b/SE9DY0avPhLhzxmKbC8m/AEvdgkFzsq3pQ8fuXsuuJAyjzmW8o8vBG5PKkIlLtDhiW9+r9bPTEEZ7zdBbM8vi9uPMS0J7y54F49quikPHgArbljEEq8mBrrvNTaGb2tx4s8s3BVvDlwW7yUXXc8YiUovJtFnzxJMZu8hKx7vCwG4Dx0KqW8tEKVPBNddzxT2Z05k/JIve0DH72C0gS92kYcvQcc0jybPNO8hpcWvdCxdbxt4Dq77JZKvTcukzxGz688tImQvDhXxDwwsjy9SfiFvBXCnrvLWAg7D1ULPXQfILy8LPW8rCHQO5Y8ljtd21g8KB0ivLDGpjuLf4q8CUOIPASHoLypcZa8BykNPWd9uLzRHpU48CmJPBiRGrzHp9o8ltiMvKy29jziozy909Ijva4r/DoFtyw9rspCPXRL0Lz8tHS6h8huvDukgb29pa489ZM2vG1ZJT1nmQU8SPiAvOOrp7yBJri7sKtaPL3tbbw2X6k94R3HO22dCb3LJRg7dCEKPQCdTjycHiG82c2gvCQHxLwbZs68KG2tvEDR+zuNSIm8WldEPShEcjyjjla8rSsnPPtcMD2WF